{
  "version": "1.0",
  "truncation": null,
  "padding": null,
  "added_tokens": [
    {
      "id": 0,
      "content": "[UNK]",
      "single_word": false,
      "lstrip": false,
      "rstrip": false,
      "normalized": false,
      "special": true
    },
    {
      "id": 1,
      "content": "[PAD]",
      "single_word": false,
      "lstrip": false,
      "rstrip": false,
      "normalized": false,
      "special": true
    },
    {
      "id": 2,
      "content": "[BOS]",
      "single_word": false,
      "lstrip": false,
      "rstrip": false,
      "normalized": false,
      "special": true
    },
    {
      "id": 3,
      "content": "[EOS]",
      "single_word": false,
      "lstrip": false,
      "rstrip": false,
      "normalized": false,
      "special": true
    }
  ],
  "normalizer": {
    "type": "Sequence",
    "normalizers": [
      {
        "type": "NFD"
      },
      {
        "type": "Lowercase"
      },
      {
        "type": "StripAccents"
      }
    ]
  },
  "pre_tokenizer": {
    "type": "Whitespace"
  },
  "post_processor": null,
  "decoder": null,
  "model": {
    "type": "BPE",
    "dropout": null,
    "unk_token": "[UNK]",
    "continuing_subword_prefix": null,
    "end_of_word_suffix": null,
    "fuse_unk": false,
    "byte_fallback": false,
    "ignore_merges": false,
    "vocab": {
      "[UNK]": 0,
      "[PAD]": 1,
      "[BOS]": 2,
      "[EOS]": 3,
      "!": 4,
      "&": 5,
      "'": 6,
      ",": 7,
      "-": 8,
      ".": 9,
      ":": 10,
      ";": 11,
      "?": 12,
      "a": 13,
      "b": 14,
      "c": 15,
      "d": 16,
      "e": 17,
      "f": 18,
      "g": 19,
      "h": 20,
      "i": 21,
      "j": 22,
      "k": 23,
      "l": 24,
      "m": 25,
      "n": 26,
      "o": 27,
      "p": 28,
      "q": 29,
      "r": 30,
      "s": 31,
      "t": 32,
      "u": 33,
      "v": 34,
      "w": 35,
      "x": 36,
      "y": 37,
      "z": 38,
      "th": 39,
      "ou": 40,
      "the": 41,
      "an": 42,
      "in": 43,
      "re": 44,
      "en": 45,
      "er": 46,
      "or": 47,
      "at": 48,
      "st": 49,
      "on": 50,
      "is": 51,
      "you": 52,
      "us": 53,
      "ar": 54,
      "ll": 55,
      "to": 56,
      "and": 57,
      "he": 58,
      "me": 59,
      "no": 60,
      "ha": 61,
      "ve": 62,
      "it": 63,
      "le": 64,
      "se": 65,
      "be": 66,
      "ce": 67,
      "of": 68,
      "wh": 69,
      "ing": 70,
      "wi": 71,
      "we": 72,
      "de": 73,
      "ius": 74,
      "ir": 75,
      "as": 76,
      "ro": 77,
      "ch": 78,
      "my": 79,
      "that": 80,
      "ld": 81,
      "for": 82,
      "ut": 83,
      "ay": 84,
      "not": 85,
      "ed": 86,
      "es": 87,
      "li": 88,
      "hi": 89,
      "your": 90,
      "co": 91,
      "with": 92,
      "so": 93,
      "are": 94,
      "our": 95,
      "ow": 96,
      "ke": 97,
      "go": 98,
      "have": 99,
      "his": 100,
      "him": 101,
      "ol": 102,
      "ri": 103,
      "pe": 104,
      "al": 105,
      "men": 106,
      "gh": 107,
      "mo": 108,
      "ur": 109,
      "ther": 110,
      "all": 111,
      "un": 112,
      "but": 113,
      "ad": 114,
      "lo": 115,
      "con": 116,
      "do": 117,
      "ra": 118,
      "id": 119,
      "thou": 120,
      "ly": 121,
      "ma": 122,
      "this": 123,
      "ould": 124,
      "ne": 125,
      "od": 126,
      "si": 127,
      "man": 128,
      "what": 129,
      "cor": 130,
      "ver": 131,
      "ent": 132,
      "now": 133,
      "one": 134,
      "thy": 135,
      "ti": 136,
      "fe": 137,
      "mar": 138,
      "sha": 139,
      "ght": 140,
      "su": 141,
      "inius": 142,
      "by": 143,
      "ds": 144,
      "will": 145,
      "wor": 146,
      "cori": 147,
      "com": 148,
      "la": 149,
      "ble": 150,
      "ue": 151,
      "ck": 152,
      "here": 153,
      "fo": 154,
      "ge": 155,
      "anus": 156,
      "olanus": 157,
      "coriolanus": 158,
      "fir": 159,
      "if": 160,
      "ter": 161,
      "enius": 162,
      "menenius": 163,
      "whi": 164,
      "first": 165,
      "ster": 166,
      "art": 167,
      "cit": 168,
      "ss": 169,
      "they": 170,
      "come": 171,
      "am": 172,
      "sh": 173,
      "them": 174,
      "ain": 175,
      "up": 176,
      "war": 177,
      "oun": 178,
      "po": 179,
      "than": 180,
      "shall": 181,
      "was": 182,
      "their": 183,
      "gl": 184,
      "fa": 185,
      "can": 186,
      "ser": 187,
      "te": 188,
      "ho": 189,
      "thee": 190,
      "which": 191,
      "pr": 192,
      "tr": 193,
      "ate": 194,
      "when": 195,
      "br": 196,
      "et": 197,
      "mu": 198,
      "who": 199,
      "ple": 200,
      "would": 201,
      "pea": 202,
      "well": 203,
      "ca": 204,
      "out": 205,
      "sel": 206,
      "good": 207,
      "iz": 208,
      "ous": 209,
      "um": 210,
      "sic": 211,
      "marc": 212,
      "let": 213,
      "citiz": 214,
      "marcius": 215,
      "citizen": 216,
      "au": 217,
      "gi": 218,
      "ouce": 219,
      "glouce": 220,
      "sicinius": 221,
      "gloucester": 222,
      "more": 223,
      "cond": 224,
      "--": 225,
      "were": 226,
      "rom": 227,
      "ion": 228,
      "there": 229,
      "ta": 230,
      "sen": 231,
      "ven": 232,
      "then": 233,
      "ct": 234,
      "fi": 235,
      "ag": 236,
      "see": 237,
      "lor": 238,
      "fore": 239,
      "king": 240,
      "hear": 241,
      "had": 242,
      "like": 243,
      "from": 244,
      "pre": 245,
      "il": 246,
      "know": 247,
      "bo": 248,
      "que": 249,
      "sa": 250,
      "vol": 251,
      "ine": 252,
      "second": 253,
      "say": 254,
      "ers": 255,
      "did": 256,
      "ant": 257,
      "sir": 258,
      "love": 259,
      "ong": 260,
      "utus": 261,
      "ul": 262,
      "cl": 263,
      "brutus": 264,
      "ces": 265,
      "where": 266,
      "ish": 267,
      "rome": 268,
      "ni": 269,
      "own": 270,
      "noble": 271,
      "upon": 272,
      "self": 273,
      "how": 274,
      "end": 275,
      "serv": 276,
      "di": 277,
      "cominius": 278,
      "fid": 279,
      "again": 280,
      "her": 281,
      "ind": 282,
      "ess": 283,
      "ady": 284,
      "make": 285,
      "lord": 286,
      "ath": 287,
      "sp": 288,
      "way": 289,
      "must": 290,
      "queen": 291,
      "fidius": 292,
      "aufidius": 293,
      "ci": 294,
      "ople": 295,
      "pro": 296,
      "people": 297,
      "ep": 298,
      "mur": 299,
      "ves": 300,
      "row": 301,
      "most": 302,
      "coun": 303,
      "spea": 304,
      "ure": 305,
      "ward": 306,
      "speak": 307,
      "gre": 308,
      "hath": 309,
      "should": 310,
      "dis": 311,
      "mi": 312,
      "yet": 313,
      "rer": 314,
      "na": 315,
      "ator": 316,
      "fri": 317,
      "some": 318,
      "aren": 319,
      "gra": 320,
      "may": 321,
      "vo": 322,
      "ity": 323,
      "time": 324,
      "che": 325,
      "ink": 326,
      "ence": 327,
      "god": 328,
      "ill": 329,
      "ry": 330,
      "tis": 331,
      "derer": 332,
      "ment": 333,
      "claren": 334,
      "murderer": 335,
      "clarence": 336,
      "thing": 337,
      "made": 338,
      "cannot": 339,
      "use": 340,
      "heart": 341,
      "why": 342,
      "ex": 343,
      "lady": 344,
      "per": 345,
      "wo": 346,
      "death": 347,
      "ab": 348,
      "ac": 349,
      "ok": 350,
      "nor": 351,
      "ars": 352,
      "less": 353,
      "give": 354,
      "take": 355,
      "senator": 356,
      "tri": 357,
      "uck": 358,
      "think": 359,
      "pray": 360,
      "umni": 361,
      "volumni": 362,
      "volumnia": 363,
      "ever": 364,
      "mb": 365,
      "other": 366,
      "qu": 367,
      "these": 368,
      "ans": 369,
      "before": 370,
      "lood": 371,
      "tell": 372,
      "serving": 373,
      "onour": 374,
      "mother": 375,
      "servingman": 376,
      "ap": 377,
      "du": 378,
      "der": 379,
      "ger": 380,
      "hast": 381,
      "peace": 382,
      "blood": 383,
      "ard": 384,
      "llow": 385,
      "done": 386,
      "pla": 387,
      "son": 388,
      "ends": 389,
      "too": 390,
      "tion": 391,
      "ince": 392,
      "ren": 393,
      "ded": 394,
      "against": 395,
      "she": 396,
      "str": 397,
      "name": 398,
      "voi": 399,
      "bre": 400,
      "ful": 401,
      "honour": 402,
      "mine": 403,
      "ye": 404,
      "thir": 405,
      "ance": 406,
      "urn": 407,
      "new": 408,
      "great": 409,
      "bro": 410,
      "cur": 411,
      "gr": 412,
      "sent": 413,
      "ise": 414,
      "never": 415,
      "such": 416,
      "comm": 417,
      "third": 418,
      "ba": 419,
      "ies": 420,
      "pt": 421,
      "af": 422,
      "vi": 423,
      "vir": 424,
      "ation": 425,
      "ved": 426,
      "pow": 427,
      "red": 428,
      "deed": 429,
      "gods": 430,
      "look": 431,
      "el": 432,
      "pat": 433,
      "anne": 434,
      "stand": 435,
      "edward": 436,
      "ness": 437,
      "ose": 438,
      "set": 439,
      "chi": 440,
      "try": 441,
      "day": 442,
      "pri": 443,
      "part": 444,
      "yes": 445,
      "ort": 446,
      "friends": 447,
      ",--": 448,
      "hand": 449,
      "jo": 450,
      "sto": 451,
      "bun": 452,
      "yor": 453,
      "any": 454,
      "bet": 455,
      "been": 456,
      "bear": 457,
      "word": 458,
      "country": 459,
      "power": 460,
      "york": 461,
      "could": 462,
      "gen": 463,
      "pa": 464,
      "tle": 465,
      "ull": 466,
      "world": 467,
      "city": 468,
      "true": 469,
      "bra": 470,
      "est": 471,
      "lt": 472,
      "pi": 473,
      "oul": 474,
      "ene": 475,
      "hea": 476,
      "being": 477,
      "char": 478,
      "vers": 479,
      "both": 480,
      "vols": 481,
      "tribun": 482,
      "ak": 483,
      "ave": 484,
      "bl": 485,
      "down": 486,
      "thus": 487,
      "ings": 488,
      "consu": 489,
      "though": 490,
      "show": 491,
      "ound": 492,
      "poor": 493,
      "home": 494,
      "much": 495,
      "call": 496,
      "those": 497,
      "turn": 498,
      "eral": 499,
      "has": 500,
      "roman": 501,
      "cause": 502,
      "voices": 503,
      "abe": 504,
      "eli": 505,
      "eyes": 506,
      "mer": 507,
      "put": 508,
      "ert": 509,
      "atter": 510,
      "arm": 511,
      "fear": 512,
      "brother": 513,
      "general": 514,
      "consul": 515,
      "nat": 516,
      "tre": 517,
      "zabe": 518,
      "lie": 519,
      "news": 520,
      "tribunes": 521,
      "elizabe": 522,
      "elizabeth": 523,
      "im": 524,
      "ken": 525,
      "sc": 526,
      "swe": 527,
      "ts": 528,
      "off": 529,
      "wife": 530,
      "wel": 531,
      "ass": 532,
      "thought": 533,
      "hold": 534,
      "therefore": 535,
      "child": 536,
      "ast": 537,
      "fl": 538,
      "gent": 539,
      "pl": 540,
      "beg": 541,
      "very": 542,
      "father": 543,
      "away": 544,
      "buck": 545,
      "gu": 546,
      "hate": 547,
      "nay": 548,
      "ten": 549,
      "fort": 550,
      "live": 551,
      "ury": 552,
      "grace": 553,
      "curse": 554,
      "band": 555,
      "ig": 556,
      "ither": 557,
      "kes": 558,
      "mad": 559,
      "soul": 560,
      "ouse": 561,
      "hel": 562,
      "ham": 563,
      "les": 564,
      "ingham": 565,
      "many": 566,
      "worthy": 567,
      "buckingham": 568,
      "ase": 569,
      "ban": 570,
      "den": 571,
      "house": 572,
      "lart": 573,
      "tong": 574,
      "ought": 575,
      "rep": 576,
      "ates": 577,
      "ition": 578,
      "dear": 579,
      "rivers": 580,
      "fair": 581,
      "tru": 582,
      "heaven": 583,
      "lartius": 584,
      "ach": 585,
      "full": 586,
      "gare": 587,
      "hus": 588,
      "ice": 589,
      "ks": 590,
      "kind": 591,
      "ps": 592,
      "ru": 593,
      "since": 594,
      "wer": 595,
      "ough": 596,
      "ang": 597,
      "leave": 598,
      "deser": 599,
      "fellow": 600,
      "margare": 601,
      "selves": 602,
      "gentle": 603,
      "madam": 604,
      "margaret": 605,
      "ction": 606,
      "eld": 607,
      "lit": 608,
      "wr": 609,
      "ins": 610,
      "dead": 611,
      "sold": 612,
      "unto": 613,
      "place": 614,
      "better": 615,
      "husband": 616,
      "able": 617,
      "even": 618,
      "ju": 619,
      "sla": 620,
      "ving": 621,
      "val": 622,
      "oud": 623,
      "int": 624,
      "state": 625,
      "still": 626,
      "forth": 627,
      "lia": 628,
      "rather": 629,
      "citizens": 630,
      "gilia": 631,
      "common": 632,
      "after": 633,
      "virgilia": 634,
      "welcome": 635,
      "soldi": 636,
      "em": 637,
      "gone": 638,
      "lay": 639,
      "op": 640,
      "pp": 641,
      "ree": 642,
      "myself": 643,
      "whose": 644,
      "boy": 645,
      "rown": 646,
      "kill": 647,
      "long": 648,
      "par": 649,
      "wa": 650,
      "woun": 651,
      "enger": 652,
      "mess": 653,
      "offi": 654,
      "keep": 655,
      "under": 656,
      "follow": 657,
      "prince": 658,
      "present": 659,
      "hastings": 660,
      "joy": 661,
      "little": 662,
      "messenger": 663,
      "bod": 664,
      "bury": 665,
      "cre": 666,
      "fare": 667,
      "old": 668,
      "ty": 669,
      "ted": 670,
      "reven": 671,
      "stay": 672,
      "ison": 673,
      "life": 674,
      "cont": 675,
      "corn": 676,
      "shame": 677,
      "words": 678,
      "hope": 679,
      "said": 680,
      "might": 681,
      "cy": 682,
      "dou": 683,
      "ear": 684,
      "spo": 685,
      "sword": 686,
      "two": 687,
      "wn": 688,
      "wish": 689,
      "anger": 690,
      "ons": 691,
      "its": 692,
      "led": 693,
      "himself": 694,
      "doth": 695,
      "tem": 696,
      "whom": 697,
      "lords": 698,
      "night": 699,
      "chess": 700,
      "duchess": 701,
      "back": 702,
      "ertain": 703,
      "nature": 704,
      "help": 705,
      ".'": 706,
      "dre": 707,
      "ff": 708,
      "mis": 709,
      "pass": 710,
      "shi": 711,
      "spe": 712,
      "va": 713,
      "won": 714,
      "rest": 715,
      "stri": 716,
      "besee": 717,
      "cei": 718,
      "dev": 719,
      "deli": 720,
      "lose": 721,
      "till": 722,
      "get": 723,
      "heard": 724,
      "spir": 725,
      "mber": 726,
      "answer": 727,
      "banish": 728,
      "soldier": 729,
      "beseech": 730,
      "bu": 731,
      "fall": 732,
      "gar": 733,
      "ged": 734,
      "pur": 735,
      "tra": 736,
      "thine": 737,
      "ange": 738,
      "into": 739,
      "iness": 740,
      "orrow": 741,
      "stre": 742,
      "used": 743,
      "ours": 744,
      "master": 745,
      "wars": 746,
      "proud": 747,
      "die": 748,
      "tongue": 749,
      "bt": 750,
      "cut": 751,
      "ef": 752,
      "ere": 753,
      "fal": 754,
      "hor": 755,
      "hum": 756,
      "ile": 757,
      "kne": 758,
      "matter": 759,
      "once": 760,
      "only": 761,
      "itor": 762,
      "best": 763,
      "comp": 764,
      "law": 765,
      "pose": 766,
      "came": 767,
      "cious": 768,
      "ments": 769,
      "about": 770,
      "grant": 771,
      "sweet": 772,
      "bla": 773,
      "cour": 774,
      "cra": 775,
      "dr": 776,
      "ears": 777,
      "har": 778,
      "ia": 779,
      "ot": 780,
      "ran": 781,
      "sle": 782,
      "tit": 783,
      "twas": 784,
      "tend": 785,
      "vent": 786,
      "ouch": 787,
      "ready": 788,
      "toge": 789,
      "nothing": 790,
      "hal": 791,
      "weep": 792,
      "desi": 793,
      "roy": 794,
      "yours": 795,
      "right": 796,
      "does": 797,
      "fool": 798,
      "comes": 799,
      "pos": 800,
      "friend": 801,
      "acc": 802,
      "qui": 803,
      "duke": 804,
      "enemy": 805,
      "volsces": 806,
      "report": 807,
      "wounds": 808,
      "body": 809,
      ",'": 810,
      "cry": 811,
      "ft": 812,
      "fit": 813,
      "fur": 814,
      "find": 815,
      "hat": 816,
      "hol": 817,
      "min": 818,
      "mon": 819,
      "oli": 820,
      "indeed": 821,
      "reme": 822,
      "eria": 823,
      "ory": 824,
      "tol": 825,
      "head": 826,
      "lies": 827,
      "sol": 828,
      "alk": 829,
      "fect": 830,
      "corioli": 831,
      "while": 832,
      "caius": 833,
      "aught": 834,
      "quest": 835,
      "virt": 836,
      "else": 837,
      "pati": 838,
      "valeria": 839,
      "farewell": 840,
      "doubt": 841,
      "together": 842,
      "half": 843,
      "further": 844,
      "bus": 845,
      "bid": 846,
      "car": 847,
      "cha": 848,
      "cle": 849,
      "care": 850,
      "cal": 851,
      "danger": 852,
      "gri": 853,
      "gates": 854,
      "ight": 855,
      "je": 856,
      "land": 857,
      "lad": 858,
      "pers": 859,
      "pard": 860,
      "another": 861,
      "inter": 862,
      "ste": 863,
      "meet": 864,
      "ite": 865,
      "beat": 866,
      "uty": 867,
      "alone": 868,
      "rage": 869,
      "mali": 870,
      "makes": 871,
      "work": 872,
      "worth": 873,
      "thank": 874,
      "please": 875,
      "senate": 876,
      "fire": 877,
      "fight": 878,
      "seem": 879,
      "loved": 880,
      "ches": 881,
      "action": 882,
      "every": 883,
      "braken": 884,
      "offic": 885,
      "false": 886,
      "brakenbury": 887,
      "!'": 888,
      "certain": 889,
      "ev": 890,
      "each": 891,
      "hence": 892,
      "thr": 893,
      "reas": 894,
      "return": 895,
      "youn": 896,
      "lly": 897,
      "ceed": 898,
      "asure": 899,
      "cho": 900,
      "form": 901,
      "within": 902,
      "ows": 903,
      "rici": 904,
      "mark": 905,
      "suff": 906,
      "last": 907,
      "serve": 908,
      "bring": 909,
      "capi": 910,
      "known": 911,
      "loves": 912,
      "things": 913,
      "hearts": 914,
      "senators": 915,
      "break": 916,
      "patrici": 917,
      "fortun": 918,
      "revenge": 919,
      "capitol": 920,
      "aed": 921,
      "ber": 922,
      "dra": 923,
      "gn": 924,
      "ges": 925,
      "hun": 926,
      "hang": 927,
      "ms": 928,
      "ned": 929,
      "none": 930,
      "obe": 931,
      "sorrow": 932,
      "talk": 933,
      "ude": 934,
      "vy": 935,
      "whe": 936,
      "three": 937,
      "rema": 938,
      "request": 939,
      "ats": 940,
      "ush": 941,
      "told": 942,
      "held": 943,
      "nob": 944,
      "lead": 945,
      "ced": 946,
      "without": 947,
      "pet": 948,
      "cons": 949,
      "sion": 950,
      "worn": 951,
      "faul": 952,
      "tears": 953,
      "saw": 954,
      "service": 955,
      "prove": 956,
      "grave": 957,
      "appe": 958,
      "voice": 959,
      "hands": 960,
      "stood": 961,
      "children": 962,
      "content": 963,
      "desire": 964,
      "pardon": 965,
      "suffer": 966,
      "air": 967,
      "bri": 968,
      "dor": 969,
      "dro": 970,
      "grow": 971,
      "hour": 972,
      "ith": 973,
      "ious": 974,
      "jest": 975,
      "ked": 976,
      "ling": 977,
      "late": 978,
      "ph": 979,
      "sur": 980,
      "yi": 981,
      "recei": 982,
      "ery": 983,
      "ond": 984,
      "ary": 985,
      "med": 986,
      "mean": 987,
      "ses": 988,
      "dest": 989,
      "deep": 990,
      "got": 991,
      "adv": 992,
      "conf": 993,
      "sure": 994,
      "given": 995,
      "send": 996,
      "cts": 997,
      "same": 998,
      "safe": 999,
      "mies": 1000,
      "plain": 1001,
      "honours": 1002,
      "command": 1003,
      "deeds": 1004,
      "charge": 1005,
      "lieve": 1006,
      "ign": 1007,
      "ship": 1008,
      "devil": 1009,
      "deliver": 1010,
      "traitor": 1011,
      "ladies": 1012,
      "person": 1013,
      "officer": 1014,
      "young": 1015,
      "dorset": 1016,
      "bit": 1017,
      "cu": 1018,
      "cen": 1019,
      "gs": 1020,
      "iv": 1021,
      "om": 1022,
      "over": 1023,
      "pity": 1024,
      "rant": 1025,
      "sun": 1026,
      "scorn": 1027,
      "tch": 1028,
      "wre": 1029,
      "wit": 1030,
      "want": 1031,
      "xt": 1032,
      "outh": 1033,
      "rect": 1034,
      "enough": 1035,
      "stra": 1036,
      "happ": 1037,
      "bed": 1038,
      "ask": 1039,
      "high": 1040,
      "hither": 1041,
      "yourself": 1042,
      "ket": 1043,
      "mock": 1044,
      "dost": 1045,
      "need": 1046,
      "neither": 1047,
      "side": 1048,
      "shalt": 1049,
      "sub": 1050,
      "comfort": 1051,
      "aint": 1052,
      "poison": 1053,
      "sence": 1054,
      "sake": 1055,
      "counter": 1056,
      "struck": 1057,
      "yea": 1058,
      "enemies": 1059,
      "mercy": 1060,
      "arms": 1061,
      "truth": 1062,
      "parti": 1063,
      "earth": 1064,
      "sleep": 1065,
      "titus": 1066,
      "royal": 1067,
      "holy": 1068,
      "remember": 1069,
      "patience": 1070,
      "business": 1071,
      "appear": 1072,
      "ake": 1073,
      "age": 1074,
      "bor": 1075,
      "cri": 1076,
      "dow": 1077,
      "either": 1078,
      "gth": 1079,
      "low": 1080,
      "mut": 1081,
      "mind": 1082,
      "ning": 1083,
      "pra": 1084,
      "prom": 1085,
      "sing": 1086,
      "sworn": 1087,
      "touch": 1088,
      "ues": 1089,
      "anta": 1090,
      "reign": 1091,
      "attend": 1092,
      "town": 1093,
      "hell": 1094,
      "behold": 1095,
      "belly": 1096,
      "cess": 1097,
      "desp": 1098,
      "yourselves": 1099,
      "almost": 1100,
      "majest": 1101,
      "enter": 1102,
      "thyself": 1103,
      "marry": 1104,
      "market": 1105,
      "foot": 1106,
      "themselves": 1107,
      "warrant": 1108,
      "face": 1109,
      "faith": 1110,
      "brought": 1111,
      "ility": 1112,
      "ular": 1113,
      "wherein": 1114,
      "woman": 1115,
      "bloody": 1116,
      "strong": 1117,
      "breath": 1118,
      "prithee": 1119,
      "volsce": 1120,
      "scar": 1121,
      "flatter": 1122,
      "pluck": 1123,
      "deny": 1124,
      "wrong": 1125,
      "jud": 1126,
      "just": 1127,
      "purpose": 1128,
      "masters": 1129,
      "dangerous": 1130,
      "yield": 1131,
      "majesty": 1132,
      "bat": 1133,
      "bar": 1134,
      "burn": 1135,
      "bound": 1136,
      "eye": 1137,
      "ecut": 1138,
      "far": 1139,
      "gain": 1140,
      "hen": 1141,
      "hur": 1142,
      "hard": 1143,
      "harm": 1144,
      "igh": 1145,
      "ily": 1146,
      "ner": 1147,
      "sm": 1148,
      "sand": 1149,
      "tar": 1150,
      "ub": 1151,
      "uous": 1152,
      "anti": 1153,
      "reat": 1154,
      "ised": 1155,
      "noise": 1156,
      "having": 1157,
      "itude": 1158,
      "lest": 1159,
      "sed": 1160,
      "become": 1161,
      "believe": 1162,
      "often": 1163,
      "ween": 1164,
      "def": 1165,
      "dem": 1166,
      "cher": 1167,
      "light": 1168,
      "liant": 1169,
      "cold": 1170,
      "ural": 1171,
      "loss": 1172,
      "conspir": 1173,
      "thousand": 1174,
      "sil": 1175,
      "lament": 1176,
      "point": 1177,
      "fast": 1178,
      "prison": 1179,
      "whole": 1180,
      "condition": 1181,
      "field": 1182,
      "press": 1183,
      "nobles": 1184,
      "proceed": 1185,
      "murder": 1186,
      "gracious": 1187,
      "execut": 1188,
      "stru": 1189,
      "viol": 1190,
      "looks": 1191,
      "patch": 1192,
      "pride": 1193,
      "between": 1194,
      "brave": 1195,
      "volsci": 1196,
      "romans": 1197,
      "curses": 1198,
      "deserve": 1199,
      "deserved": 1200,
      "vail": 1201,
      "strike": 1202,
      "spirit": 1203,
      "hark": 1204,
      "malice": 1205,
      "reason": 1206,
      "patricians": 1207,
      "fortune": 1208,
      "aedile": 1209,
      "whether": 1210,
      "conspirator": 1211,
      "amen": 1212,
      "bad": 1213,
      "cr": 1214,
      "cat": 1215,
      "cro": 1216,
      "dare": 1217,
      "duty": 1218,
      "emb": 1219,
      "fly": 1220,
      "foul": 1221,
      "fought": 1222,
      "gue": 1223,
      "ian": 1224,
      "lan": 1225,
      "mit": 1226,
      "mity": 1227,
      "ting": 1228,
      "twere": 1229,
      "ught": 1230,
      "wat": 1231,
      "wine": 1232,
      "ze": 1233,
      "thro": 1234,
      "ined": 1235,
      "rel": 1236,
      "ors": 1237,
      "stren": 1238,
      "ones": 1239,
      "ishe": 1240,
      "army": 1241,
      "vereign": 1242,
      "seen": 1243,
      "force": 1244,
      "ute": 1245,
      "lip": 1246,
      "sovereign": 1247,
      "pect": 1248,
      "along": 1249,
      "already": 1250,
      "unless": 1251,
      "uncle": 1252,
      "doing": 1253,
      "ider": 1254,
      "sist": 1255,
      "shake": 1256,
      "sup": 1257,
      "cks": 1258,
      "amp": 1259,
      "trou": 1260,
      "whence": 1261,
      "thence": 1262,
      "pret": 1263,
      "prevail": 1264,
      "ils": 1265,
      "save": 1266,
      "direct": 1267,
      "rows": 1268,
      "counsel": 1269,
      "grey": 1270,
      "dispatch": 1271,
      "mile": 1272,
      "times": 1273,
      "strange": 1274,
      "breast": 1275,
      "grand": 1276,
      "natural": 1277,
      "swear": 1278,
      "tongues": 1279,
      "slave": 1280,
      "princely": 1281,
      "spoke": 1282,
      "tempt": 1283,
      "dream": 1284,
      "spect": 1285,
      "stress": 1286,
      "company": 1287,
      "drum": 1288,
      "virtuous": 1289,
      "obey": 1290,
      "remain": 1291,
      "straight": 1292,
      "happy": 1293,
      "scarce": 1294,
      "battle": 1295,
      "strength": 1296,
      "bour": 1297,
      "crown": 1298,
      "da": 1299,
      "daught": 1300,
      "four": 1301,
      "fra": 1302,
      "gave": 1303,
      "hu": 1304,
      "hind": 1305,
      "ied": 1306,
      "ices": 1307,
      "ians": 1308,
      "mor": 1309,
      "mble": 1310,
      "mouth": 1311,
      "owe": 1312,
      "pit": 1313,
      "pain": 1314,
      "tro": 1315,
      "tull": 1316,
      "ud": 1317,
      "vis": 1318,
      "vill": 1319,
      "win": 1320,
      "wall": 1321,
      "wind": 1322,
      "wise": 1323,
      "thor": 1324,
      "ended": 1325,
      "stin": 1326,
      "arn": 1327,
      "arch": 1328,
      "met": 1329,
      "means": 1330,
      "methought": 1331,
      "left": 1332,
      "seal": 1333,
      "because": 1334,
      "oft": 1335,
      "wixt": 1336,
      "ash": 1337,
      "rock": 1338,
      "change": 1339,
      "coward": 1340,
      "rich": 1341,
      "als": 1342,
      "alas": 1343,
      "move": 1344,
      "ally": 1345,
      "dom": 1346,
      "sight": 1347,
      "tide": 1348,
      "feel": 1349,
      "worse": 1350,
      "bless": 1351,
      "among": 1352,
      "wards": 1353,
      "fill": 1354,
      "presence": 1355,
      "knows": 1356,
      "says": 1357,
      "servant": 1358,
      "provo": 1359,
      "ched": 1360,
      "chee": 1361,
      "prayers": 1362,
      "derby": 1363,
      "years": 1364,
      "greater": 1365,
      "ations": 1366,
      "days": 1367,
      "stom": 1368,
      "charity": 1369,
      "fearful": 1370,
      "tread": 1371,
      "guard": 1372,
      "cursed": 1373,
      "ignor": 1374,
      "trust": 1375,
      "fully": 1376,
      "horse": 1377,
      "knee": 1378,
      "blame": 1379,
      "course": 1380,
      "hatred": 1381,
      "chamber": 1382,
      "through": 1383,
      "petition": 1384,
      "fault": 1385,
      "mutin": 1386,
      "antage": 1387,
      "execution": 1388,
      "grandam": 1389,
      "tullus": 1390,
      "act": 1391,
      "aves": 1392,
      "auty": 1393,
      "bis": 1394,
      "bours": 1395,
      "cus": 1396,
      "clo": 1397,
      "cent": 1398,
      "cla": 1399,
      "dar": 1400,
      "eat": 1401,
      "ele": 1402,
      "found": 1403,
      "free": 1404,
      "ima": 1405,
      "kis": 1406,
      "lst": 1407,
      "mort": 1408,
      "num": 1409,
      "ob": 1410,
      "oh": 1411,
      "ped": 1412,
      "pes": 1413,
      "plo": 1414,
      "sit": 1415,
      "sound": 1416,
      "swords": 1417,
      "vate": 1418,
      "vouch": 1419,
      "wra": 1420,
      "yond": 1421,
      "thither": 1422,
      "inform": 1423,
      "ref": 1424,
      "read": 1425,
      "resol": 1426,
      "respect": 1427,
      "envy": 1428,
      "stab": 1429,
      "issu": 1430,
      "tower": 1431,
      "hail": 1432,
      "vest": 1433,
      "itself": 1434,
      "learn": 1435,
      "beast": 1436,
      "beauty": 1437,
      "wilt": 1438,
      "widow": 1439,
      "wear": 1440,
      "wept": 1441,
      "deter": 1442,
      "chol": 1443,
      "chance": 1444,
      "lic": 1445,
      "lives": 1446,
      "ried": 1447,
      "mend": 1448,
      "moon": 1449,
      "unnatural": 1450,
      "neigh": 1451,
      "six": 1452,
      "sick": 1453,
      "corse": 1454,
      "entertain": 1455,
      "entreat": 1456,
      "fection": 1457,
      "sured": 1458,
      "lack": 1459,
      "bled": 1460,
      "whilst": 1461,
      "shout": 1462,
      "glad": 1463,
      "fav": 1464,
      "fame": 1465,
      "tear": 1466,
      "letter": 1467,
      "fie": 1468,
      "hearing": 1469,
      "endure": 1470,
      "cience": 1471,
      "prop": 1472,
      "count": 1473,
      "speaks": 1474,
      "dispos": 1475,
      "mild": 1476,
      "fright": 1477,
      "extre": 1478,
      "others": 1479,
      "quar": 1480,
      "brea": 1481,
      "base": 1482,
      "vict": 1483,
      "private": 1484,
      "party": 1485,
      "join": 1486,
      "store": 1487,
      "pale": 1488,
      "pair": 1489,
      "pie": 1490,
      "blush": 1491,
      "heavens": 1492,
      "angry": 1493,
      "gentleman": 1494,
      "writ": 1495,
      "wail": 1496,
      "miss": 1497,
      "valiant": 1498,
      "lawful": 1499,
      "carry": 1500,
      "jects": 1501,
      "nobly": 1502,
      "nobility": 1503,
      "consider": 1504,
      "conscience": 1505,
      "brief": 1506,
      "custom": 1507,
      "partic": 1508,
      "promise": 1509,
      "judg": 1510,
      "henry": 1511,
      "small": 1512,
      "violent": 1513,
      "ished": 1514,
      "pretty": 1515,
      "mortal": 1516,
      "wrath": 1517,
      ";'": 1518,
      "aid": 1519,
      "ack": 1520,
      "bs": 1521,
      "bow": 1522,
      "bly": 1523,
      "bert": 1524,
      "cup": 1525,
      "cous": 1526,
      "dle": 1527,
      "dam": 1528,
      "dish": 1529,
      "dden": 1530,
      "eas": 1531,
      "fin": 1532,
      "fre": 1533,
      "fran": 1534,
      "ga": 1535,
      "gg": 1536,
      "hone": 1537,
      "ister": 1538,
      "jury": 1539,
      "ls": 1540,
      "morrow": 1541,
      "nur": 1542,
      "oth": 1543,
      "oak": 1544,
      "pare": 1545,
      "pal": 1546,
      "pun": 1547,
      "run": 1548,
      "sin": 1549,
      "smo": 1550,
      "saint": 1551,
      "soft": 1552,
      "tent": 1553,
      "wak": 1554,
      "thunder": 1555,
      "ances": 1556,
      "reward": 1557,
      "ench": 1558,
      "encounter": 1559,
      "erce": 1560,
      "erous": 1561,
      "stir": 1562,
      "stant": 1563,
      "stamp": 1564,
      "took": 1565,
      "towards": 1566,
      "heal": 1567,
      "measure": 1568,
      "hap": 1569,
      "ited": 1570,
      "sea": 1571,
      "sell": 1572,
      "semb": 1573,
      "bears": 1574,
      "behind": 1575,
      "west": 1576,
      "weed": 1577,
      "weak": 1578,
      "forget": 1579,
      "forgot": 1580,
      "note": 1581,
      "hion": 1582,
      "hide": 1583,
      "withal": 1584,
      "som": 1585,
      "gover": 1586,
      "ries": 1587,
      "urge": 1588,
      "unt": 1589,
      "lost": 1590,
      "rain": 1591,
      "sign": 1592,
      "tive": 1593,
      "fee": 1594,
      "supp": 1595,
      "coming": 1596,
      "complain": 1597,
      "gest": 1598,
      "sho": 1599,
      "thanks": 1600,
      "test": 1601,
      "hop": 1602,
      "host": 1603,
      "hood": 1604,
      "prate": 1605,
      "ets": 1606,
      "mult": 1607,
      "plebe": 1608,
      "pleasure": 1609,
      "author": 1610,
      "therein": 1611,
      "table": 1612,
      "hadst": 1613,
      "prepare": 1614,
      "ilt": 1615,
      "bold": 1616,
      "didst": 1617,
      "dience": 1618,
      "ways": 1619,
      "prosp": 1620,
      "grain": 1621,
      "exc": 1622,
      "wore": 1623,
      "women": 1624,
      "thinks": 1625,
      "mbers": 1626,
      "appro": 1627,
      "plague": 1628,
      "sons": 1629,
      "rent": 1630,
      "shed": 1631,
      "ground": 1632,
      "commit": 1633,
      "jove": 1634,
      "past": 1635,
      "estim": 1636,
      "heavy": 1637,
      "blows": 1638,
      "imprison": 1639,
      "flat": 1640,
      "begg": 1641,
      "begin": 1642,
      "souls": 1643,
      "truly": 1644,
      "kindred": 1645,
      "deadly": 1646,
      "slain": 1647,
      "valour": 1648,
      "wounded": 1649,
      "presently": 1650,
      "dread": 1651,
      "banishment": 1652,
      "humble": 1653,
      "knees": 1654,
      "fools": 1655,
      "quick": 1656,
      "virtue": 1657,
      "calm": 1658,
      "draw": 1659,
      "leads": 1660,
      "faults": 1661,
      "phy": 1662,
      "receive": 1663,
      "received": 1664,
      "advance": 1665,
      "borne": 1666,
      "praise": 1667,
      "gainst": 1668,
      "defend": 1669,
      "struction": 1670,
      "ughter": 1671,
      "throat": 1672,
      "trouble": 1673,
      "daughter": 1674,
      "human": 1675,
      "troth": 1676,
      "villain": 1677,
      "walls": 1678,
      "provoked": 1679,
      "cheeks": 1680,
      "favour": 1681,
      "prophe": 1682,
      "disposition": 1683,
      "particular": 1684,
      "judgment": 1685,
      "dishonour": 1686,
      "nurse": 1687,
      "govern": 1688,
      "abo": 1689,
      "bene": 1690,
      "cure": 1691,
      "close": 1692,
      "dy": 1693,
      "dur": 1694,
      "dred": 1695,
      "drown": 1696,
      "ew": 1697,
      "ease": 1698,
      "fer": 1699,
      "fam": 1700,
      "fine": 1701,
      "frown": 1702,
      "gro": 1703,
      "grown": 1704,
      "hours": 1705,
      "ic": 1706,
      "kna": 1707,
      "knew": 1708,
      "len": 1709,
      "oc": 1710,
      "por": 1711,
      "pas": 1712,
      "pau": 1713,
      "pub": 1714,
      "ron": 1715,
      "ring": 1716,
      "sal": 1717,
      "sad": 1718,
      "spr": 1719,
      "sort": 1720,
      "sland": 1721,
      "tw": 1722,
      "tten": 1723,
      "tched": 1724,
      "ued": 1725,
      "vantage": 1726,
      "ws": 1727,
      "wis": 1728,
      "thre": 1729,
      "thri": 1730,
      "ouds": 1731,
      "anci": 1732,
      "inno": 1733,
      "incl": 1734,
      "insol": 1735,
      "infect": 1736,
      "incen": 1737,
      "injury": 1738,
      "rebe": 1739,
      "renow": 1740,
      "reti": 1741,
      "requi": 1742,
      "repair": 1743,
      "enjoy": 1744,
      "ated": 1745,
      "sts": 1746,
      "star": 1747,
      "stro": 1748,
      "stake": 1749,
      "stones": 1750,
      "ising": 1751,
      "heir": 1752,
      "members": 1753,
      "noon": 1754,
      "nobl": 1755,
      "ities": 1756,
      "leaves": 1757,
      "sey": 1758,
      "sever": 1759,
      "seven": 1760,
      "semble": 1761,
      "beheld": 1762,
      "below": 1763,
      "cept": 1764,
      "ingr": 1765,
      "wick": 1766,
      "weal": 1767,
      "asing": 1768,
      "assured": 1769,
      "road": 1770,
      "rotten": 1771,
      "ford": 1772,
      "former": 1773,
      "lips": 1774,
      "libert": 1775,
      "soon": 1776,
      "ourselves": 1777,
      "kept": 1778,
      "going": 1779,
      "gold": 1780,
      "goes": 1781,
      "peian": 1782,
      "motion": 1783,
      "moved": 1784,
      "load": 1785,
      "concl": 1786,
      "consent": 1787,
      "condem": 1788,
      "contempt": 1789,
      "dog": 1790,
      "making": 1791,
      "nest": 1792,
      "neck": 1793,
      "sigh": 1794,
      "sible": 1795,
      "enty": 1796,
      "feit": 1797,
      "suc": 1798,
      "sum": 1799,
      "suit": 1800,
      "sudden": 1801,
      "commend": 1802,
      "laid": 1803,
      "labour": 1804,
      "hereafter": 1805,
      "geance": 1806,
      "terr": 1807,
      "whither": 1808,
      "short": 1809,
      "ounds": 1810,
      "pop": 1811,
      "post": 1812,
      "wash": 1813,
      "theirs": 1814,
      "faces": 1815,
      "teach": 1816,
      "pron": 1817,
      "trum": 1818,
      "ateful": 1819,
      "mul": 1820,
      "plead": 1821,
      "cast": 1822,
      "caster": 1823,
      "caps": 1824,
      "outward": 1825,
      "goodly": 1826,
      "condu": 1827,
      "vengeance": 1828,
      "five": 1829,
      "seek": 1830,
      "kingdom": 1831,
      "bosom": 1832,
      "sirs": 1833,
      "clouds": 1834,
      "services": 1835,
      "div": 1836,
      "proper": 1837,
      "gree": 1838,
      "dismiss": 1839,
      "mistress": 1840,
      "naked": 1841,
      "something": 1842,
      "exile": 1843,
      "exceed": 1844,
      "expect": 1845,
      "account": 1846,
      "app": 1847,
      "haste": 1848,
      "rend": 1849,
      "grat": 1850,
      "vile": 1851,
      "view": 1852,
      "stands": 1853,
      "chie": 1854,
      "charged": 1855,
      "tribune": 1856,
      "turns": 1857,
      "merit": 1858,
      "thoughts": 1859,
      "banished": 1860,
      "repent": 1861,
      "kindly": 1862,
      "ruin": 1863,
      "fellows": 1864,
      "slaves": 1865,
      "slaughter": 1866,
      "intent": 1867,
      "soldiers": 1868,
      "open": 1869,
      "revenged": 1870,
      "wont": 1871,
      "wonder": 1872,
      "ceive": 1873,
      "buy": 1874,
      "black": 1875,
      "court": 1876,
      "crack": 1877,
      "slew": 1878,
      "tender": 1879,
      "accus": 1880,
      "accuse": 1881,
      "holp": 1882,
      "minister": 1883,
      "heads": 1884,
      "patient": 1885,
      "cares": 1886,
      "griev": 1887,
      "steed": 1888,
      "reasons": 1889,
      "choice": 1890,
      "patrician": 1891,
      "hung": 1892,
      "hundred": 1893,
      "remains": 1894,
      "drop": 1895,
      "drops": 1896,
      "destroy": 1897,
      "witness": 1898,
      "subjects": 1899,
      "born": 1900,
      "cries": 1901,
      "justice": 1902,
      "tarpeian": 1903,
      "antium": 1904,
      "wholesome": 1905,
      "volscian": 1906,
      "volscians": 1907,
      "crue": 1908,
      "embra": 1909,
      "lancaster": 1910,
      "daily": 1911,
      "mouths": 1912,
      "visit": 1913,
      "archbis": 1914,
      "cowardly": 1915,
      "ignorance": 1916,
      "dark": 1917,
      "kiss": 1918,
      "resolved": 1919,
      "stabb": 1920,
      "issue": 1921,
      "neighbours": 1922,
      "mildly": 1923,
      "quarrel": 1924,
      "breathe": 1925,
      "cousin": 1926,
      "easy": 1927,
      "honest": 1928,
      "punish": 1929,
      "multitude": 1930,
      "plebeians": 1931,
      "excuse": 1932,
      "estimation": 1933,
      "physic": 1934,
      "paul": 1935,
      "twenty": 1936,
      "ancient": 1937,
      "liberty": 1938,
      "grievous": 1939,
      "archbishop": 1940,
      "ald": 1941,
      "alike": 1942,
      "aded": 1943,
      "awhile": 1944,
      "aches": 1945,
      "bon": 1946,
      "bur": 1947,
      "bble": 1948,
      "brow": 1949,
      "brows": 1950,
      "cas": 1951,
      "din": 1952,
      "dge": 1953,
      "dain": 1954,
      "dance": 1955,
      "ech": 1956,
      "eag": 1957,
      "fing": 1958,
      "fas": 1959,
      "fli": 1960,
      "fla": 1961,
      "gin": 1962,
      "gir": 1963,
      "gly": 1964,
      "gine": 1965,
      "ide": 1966,
      "iles": 1967,
      "jour": 1968,
      "jup": 1969,
      "jure": 1970,
      "kit": 1971,
      "lar": 1972,
      "mat": 1973,
      "mour": 1974,
      "mal": 1975,
      "mid": 1976,
      "mory": 1977,
      "ny": 1978,
      "ost": 1979,
      "oking": 1980,
      "port": 1981,
      "rup": 1982,
      "rum": 1983,
      "rough": 1984,
      "sy": 1985,
      "san": 1986,
      "swi": 1987,
      "slay": 1988,
      "sits": 1989,
      "south": 1990,
      "smile": 1991,
      "tor": 1992,
      "tren": 1993,
      "tush": 1994,
      "twixt": 1995,
      "ual": 1996,
      "ugh": 1997,
      "uff": 1998,
      "ugly": 1999,
      "vul": 2000,
      "vish": 2001,
      "wert": 2002,
      "wast": 2003,
      "wks": 2004,
      "wits": 2005,
      "yon": 2006,
      "zard": 2007,
      "thin": 2008,
      "throw": 2009,
      "anon": 2010,
      "inion": 2011,
      "incre": 2012,
      "res": 2013,
      "repe": 2014,
      "requ": 2015,
      "engl": 2016,
      "enant": 2017,
      "envi": 2018,
      "enmity": 2019,
      "erc": 2020,
      "orious": 2021,
      "ating": 2022,
      "stout": 2023,
      "ises": 2024,
      "ission": 2025,
      "usion": 2026,
      "llion": 2027,
      "tom": 2028,
      "hes": 2029,
      "heed": 2030,
      "heap": 2031,
      "meed": 2032,
      "melt": 2033,
      "methinks": 2034,
      "memory": 2035,
      "nod": 2036,
      "hair": 2037,
      "vel": 2038,
      "vey": 2039,
      "iter": 2040,
      "itable": 2041,
      "seiz": 2042,
      "secre": 2043,
      "betide": 2044,
      "cell": 2045,
      "cease": 2046,
      "ingly": 2047,
      "wives": 2048,
      "wed": 2049,
      "weap": 2050,
      "weary": 2051,
      "des": 2052,
      "deare": 2053,
      "ason": 2054,
      "roar": 2055,
      "root": 2056,
      "chri": 2057,
      "forso": 2058,
      "forgive": 2059,
      "utter": 2060,
      "utenant": 2061,
      "eding": 2062,
      "lied": 2063,
      "living": 2064,
      "cover": 2065,
      "soo": 2066,
      "sole": 2067,
      "soever": 2068,
      "rip": 2069,
      "ripe": 2070,
      "peers": 2071,
      "alms": 2072,
      "always": 2073,
      "modest": 2074,
      "untime": 2075,
      "undone": 2076,
      "unknown": 2077,
      "butter": 2078,
      "butcher": 2079,
      "admit": 2080,
      "looking": 2081,
      "confir": 2082,
      "dogs": 2083,
      "ident": 2084,
      "magi": 2085,
      "near": 2086,
      "sim": 2087,
      "tic": 2088,
      "ties": 2089,
      "tily": 2090,
      "fest": 2091,
      "feren": 2092,
      "feast": 2093,
      "mars": 2094,
      "march": 2095,
      "marks": 2096,
      "shadow": 2097,
      "worst": 2098,
      "worship": 2099,
      "laugh": 2100,
      "foe": 2101,
      "fold": 2102,
      "folly": 2103,
      "whip": 2104,
      "warlike": 2105,
      "warwick": 2106,
      "glass": 2107,
      "canst": 2108,
      "served": 2109,
      "tewks": 2110,
      "pleasing": 2111,
      "wouldst": 2112,
      "lets": 2113,
      "taun": 2114,
      "ctor": 2115,
      "cted": 2116,
      "aged": 2117,
      "ages": 2118,
      "seeing": 2119,
      "knowled": 2120,
      "bot": 2121,
      "wherefore": 2122,
      "distress": 2123,
      "herd": 2124,
      "herald": 2125,
      "spare": 2126,
      "spend": 2127,
      "disgrace": 2128,
      "disease": 2129,
      "disdain": 2130,
      "mistake": 2131,
      "naw": 2132,
      "sometime": 2133,
      "arent": 2134,
      "mayst": 2135,
      "cheap": 2136,
      "enced": 2137,
      "express": 2138,
      "perform": 2139,
      "perceive": 2140,
      "woo": 2141,
      "womb": 2142,
      "abhor": 2143,
      "absol": 2144,
      "absence": 2145,
      "tribe": 2146,
      "dull": 2147,
      "bred": 2148,
      "honourable": 2149,
      "broke": 2150,
      "current": 2151,
      "commission": 2152,
      "affect": 2153,
      "affection": 2154,
      "powers": 2155,
      "els": 2156,
      "standing": 2157,
      "chief": 2158,
      "price": 2159,
      "parts": 2160,
      "stop": 2161,
      "betwixt": 2162,
      "pack": 2163,
      "charges": 2164,
      "blind": 2165,
      "shows": 2166,
      "brothers": 2167,
      "lieutenant": 2168,
      "ims": 2169,
      "offence": 2170,
      "wels": 2171,
      "childish": 2172,
      "flow": 2173,
      "plant": 2174,
      "beggar": 2175,
      "guess": 2176,
      "guilt": 2177,
      "dearth": 2178,
      "rust": 2179,
      "rule": 2180,
      "ruled": 2181,
      "deserves": 2182,
      "gentlemen": 2183,
      "ctions": 2184,
      "opinion": 2185,
      "office": 2186,
      "undertake": 2187,
      "follows": 2188,
      "tyran": 2189,
      "contro": 2190,
      "earnest": 2191,
      "spoil": 2192,
      "spoken": 2193,
      "temple": 2194,
      "temper": 2195,
      "misery": 2196,
      "ships": 2197,
      "shield": 2198,
      "speed": 2199,
      "speech": 2200,
      "wondr": 2201,
      "devise": 2202,
      "garments": 2203,
      "garland": 2204,
      "stretch": 2205,
      "streets": 2206,
      "effect": 2207,
      "compan": 2208,
      "posed": 2209,
      "granted": 2210,
      "crave": 2211,
      "harvest": 2212,
      "vented": 2213,
      "venture": 2214,
      "friendly": 2215,
      "quiet": 2216,
      "hated": 2217,
      "grie": 2218,
      "grim": 2219,
      "ject": 2220,
      "worthi": 2221,
      "pleased": 2222,
      "throne": 2223,
      "choose": 2224,
      "aediles": 2225,
      "obedience": 2226,
      "desires": 2227,
      "meddle": 2228,
      "commanded": 2229,
      "bitter": 2230,
      "censure": 2231,
      "wretched": 2232,
      "wants": 2233,
      "parties": 2234,
      "prompt": 2235,
      "single": 2236,
      "despair": 2237,
      "judge": 2238,
      "hurt": 2239,
      "tarqu": 2240,
      "antiates": 2241,
      "demand": 2242,
      "catch": 2243,
      "drums": 2244,
      "scarcely": 2245,
      "fourth": 2246,
      "frame": 2247,
      "morning": 2248,
      "stinct": 2249,
      "mutinous": 2250,
      "numb": 2251,
      "determine": 2252,
      "choler": 2253,
      "victory": 2254,
      "pieces": 2255,
      "health": 2256,
      "weeds": 2257,
      "prosper": 2258,
      "imprisonment": 2259,
      "flatte": 2260,
      "dreadful": 2261,
      "above": 2262,
      "public": 2263,
      "innocent": 2264,
      "incensed": 2265,
      "renowned": 2266,
      "strokes": 2267,
      "popular": 2268,
      "pronoun": 2269,
      "trumpe": 2270,
      "divine": 2271,
      "embrace": 2272,
      "finger": 2273,
      "jupiter": 2274,
      "increase": 2275,
      "repeal": 2276,
      "weapons": 2277,
      "christ": 2278,
      "untimely": 2279,
      "tewksbury": 2280,
      "knowledge": 2281,
      "absolute": 2282,
      "wondrous": 2283,
      "!--": 2284,
      "'?": 2285,
      ":--": 2286,
      "?--": 2287,
      "alive": 2288,
      "aery": 2289,
      "achie": 2290,
      "bation": 2291,
      "big": 2292,
      "bench": 2293,
      "cir": 2294,
      "cti": 2295,
      "cum": 2296,
      "cles": 2297,
      "crows": 2298,
      "dit": 2299,
      "ding": 2300,
      "dri": 2301,
      "dif": 2302,
      "dwell": 2303,
      "dined": 2304,
      "eth": 2305,
      "eter": 2306,
      "equ": 2307,
      "emul": 2308,
      "fan": 2309,
      "fat": 2310,
      "fle": 2311,
      "fol": 2312,
      "fun": 2313,
      "flood": 2314,
      "flies": 2315,
      "fron": 2316,
      "gon": 2317,
      "ghe": 2318,
      "ging": 2319,
      "gown": 2320,
      "gure": 2321,
      "gnaw": 2322,
      "ior": 2323,
      "ive": 2324,
      "ient": 2325,
      "iet": 2326,
      "iment": 2327,
      "jack": 2328,
      "ker": 2329,
      "ler": 2330,
      "lour": 2331,
      "lun": 2332,
      "lend": 2333,
      "lud": 2334,
      "ming": 2335,
      "mir": 2336,
      "moun": 2337,
      "nought": 2338,
      "naught": 2339,
      "ope": 2340,
      "pay": 2341,
      "pour": 2342,
      "pent": 2343,
      "ras": 2344,
      "rise": 2345,
      "rash": 2346,
      "sk": 2347,
      "sus": 2348,
      "sca": 2349,
      "sway": 2350,
      "scho": 2351,
      "slight": 2352,
      "twi": 2353,
      "twill": 2354,
      "tain": 2355,
      "twould": 2356,
      "tum": 2357,
      "uary": 2358,
      "vow": 2359,
      "vass": 2360,
      "wing": 2361,
      "wol": 2362,
      "ys": 2363,
      "yal": 2364,
      "zen": 2365,
      "ths": 2366,
      "thwa": 2367,
      "threat": 2368,
      "inf": 2369,
      "inu": 2370,
      "ining": 2371,
      "ines": 2372,
      "inher": 2373,
      "instru": 2374,
      "instant": 2375,
      "rem": 2376,
      "rein": 2377,
      "rede": 2378,
      "recon": 2379,
      "rely": 2380,
      "revol": 2381,
      "reap": 2382,
      "resist": 2383,
      "repetition": 2384,
      "eness": 2385,
      "enforce": 2386,
      "err": 2387,
      "erate": 2388,
      "erable": 2389,
      "orge": 2390,
      "orous": 2391,
      "order": 2392,
      "ortive": 2393,
      "aty": 2394,
      "stor": 2395,
      "stone": 2396,
      "ony": 2397,
      "isure": 2398,
      "youth": 2399,
      "aries": 2400,
      "lls": 2401,
      "toe": 2402,
      "top": 2403,
      "toad": 2404,
      "toward": 2405,
      "ander": 2406,
      "hector": 2407,
      "heels": 2408,
      "mes": 2409,
      "mew": 2410,
      "meat": 2411,
      "mest": 2412,
      "melan": 2413,
      "hazard": 2414,
      "vell": 2415,
      "veins": 2416,
      "ital": 2417,
      "lean": 2418,
      "lect": 2419,
      "leag": 2420,
      "leep": 2421,
      "legs": 2422,
      "leisure": 2423,
      "secon": 2424,
      "beard": 2425,
      "beloved": 2426,
      "beside": 2427,
      "beyond": 2428,
      "white": 2429,
      "wild": 2430,
      "wither": 2431,
      "weight": 2432,
      "devo": 2433,
      "decei": 2434,
      "destruction": 2435,
      "degree": 2436,
      "aspect": 2437,
      "assist": 2438,
      "aside": 2439,
      "asleep": 2440,
      "rob": 2441,
      "chers": 2442,
      "chose": 2443,
      "chert": 2444,
      "ution": 2445,
      "utmost": 2446,
      "esy": 2447,
      "espe": 2448,
      "lier": 2449,
      "list": 2450,
      "liar": 2451,
      "limb": 2452,
      "liest": 2453,
      "licy": 2454,
      "liber": 2455,
      "hire": 2456,
      "hions": 2457,
      "highe": 2458,
      "sore": 2459,
      "ourish": 2460,
      "pest": 2461,
      "alter": 2462,
      "alous": 2463,
      "although": 2464,
      "alack": 2465,
      "moan": 2466,
      "allies": 2467,
      "une": 2468,
      "uncertain": 2469,
      "add": 2470,
      "adi": 2471,
      "ado": 2472,
      "advers": 2473,
      "lock": 2474,
      "loyal": 2475,
      "conqu": 2476,
      "constant": 2477,
      "convey": 2478,
      "doit": 2479,
      "raid": 2480,
      "raised": 2481,
      "rabble": 2482,
      "idle": 2483,
      "idings": 2484,
      "main": 2485,
      "maid": 2486,
      "net": 2487,
      "neare": 2488,
      "next": 2489,
      "necess": 2490,
      "odd": 2491,
      "mani": 2492,
      "manner": 2493,
      "tiger": 2494,
      "few": 2495,
      "fell": 2496,
      "fears": 2497,
      "fetch": 2498,
      "marqu": 2499,
      "marvell": 2500,
      "shade": 2501,
      "shapes": 2502,
      "suing": 2503,
      "sued": 2504,
      "supre": 2505,
      "suitor": 2506,
      "worships": 2507,
      "comfor": 2508,
      "lain": 2509,
      "lamb": 2510,
      "blest": 2511,
      "ckle": 2512,
      "foes": 2513,
      "george": 2514,
      "arts": 2515,
      "amity": 2516,
      "ambit": 2517,
      "shut": 2518,
      "warri": 2519,
      "ounded": 2520,
      "poll": 2521,
      "poser": 2522,
      "policy": 2523,
      "glory": 2524,
      "fail": 2525,
      "fawn": 2526,
      "faced": 2527,
      "teeth": 2528,
      "hoo": 2529,
      "hot": 2530,
      "prof": 2531,
      "bru": 2532,
      "bran": 2533,
      "eted": 2534,
      "capa": 2535,
      "capit": 2536,
      "outrage": 2537,
      "ously": 2538,
      "umph": 2539,
      "gives": 2540,
      "giving": 2541,
      "thereof": 2542,
      "thereby": 2543,
      "tale": 2544,
      "taken": 2545,
      "takes": 2546,
      "venom": 2547,
      "ctuary": 2548,
      "fierce": 2549,
      "kings": 2550,
      "hearth": 2551,
      "heartily": 2552,
      "likely": 2553,
      "prey": 2554,
      "prepar": 2555,
      "preserve": 2556,
      "bowels": 2557,
      "sage": 2558,
      "saved": 2559,
      "saying": 2560,
      "antly": 2561,
      "ulate": 2562,
      "cloud": 2563,
      "died": 2564,
      "dies": 2565,
      "dict": 2566,
      "distri": 2567,
      "spa": 2568,
      "spurn": 2569,
      "sport": 2570,
      "spake": 2571,
      "musty": 2572,
      "cially": 2573,
      "proof": 2574,
      "proved": 2575,
      "counten": 2576,
      "shouldst": 2577,
      "dissent": 2578,
      "discontent": 2579,
      "dissemb": 2580,
      "dissemble": 2581,
      "miles": 2582,
      "rers": 2583,
      "voc": 2584,
      "cheer": 2585,
      "exam": 2586,
      "excell": 2587,
      "peri": 2588,
      "persu": 2589,
      "perish": 2590,
      "perfect": 2591,
      "perpet": 2592,
      "wot": 2593,
      "deaths": 2594,
      "abun": 2595,
      "abused": 2596,
      "abroad": 2597,
      "acqu": 2598,
      "acles": 2599,
      "accept": 2600,
      "north": 2601,
      "lesser": 2602,
      "triumph": 2603,
      "apt": 2604,
      "dust": 2605,
      "rench": 2606,
      "names": 2607,
      "fulness": 2608,
      "brook": 2609,
      "grateful": 2610,
      "bald": 2611,
      "affright": 2612,
      "afraid": 2613,
      "virgin": 2614,
      "looked": 2615,
      "elded": 2616,
      "priest": 2617,
      "bearing": 2618,
      "ulls": 2619,
      "brain": 2620,
      "brace": 2621,
      "pierce": 2622,
      "heavi": 2623,
      "bling": 2624,
      "blown": 2625,
      "merry": 2626,
      "putting": 2627,
      "consuls": 2628,
      "treach": 2629,
      "treasure": 2630,
      "tremble": 2631,
      "treaty": 2632,
      "scene": 2633,
      "scatter": 2634,
      "sweat": 2635,
      "offer": 2636,
      "offended": 2637,
      "holds": 2638,
      "holding": 2639,
      "play": 2640,
      "planta": 2641,
      "began": 2642,
      "tended": 2643,
      "bands": 2644,
      "helps": 2645,
      "denied": 2646,
      "rude": 2647,
      "desert": 2648,
      "insinu": 2649,
      "commons": 2650,
      "welcomes": 2651,
      "empt": 2652,
      "oppos": 2653,
      "opposer": 2654,
      "boys": 2655,
      "killing": 2656,
      "wait": 2657,
      "wake": 2658,
      "joys": 2659,
      "crept": 2660,
      "revenges": 2661,
      "contin": 2662,
      "mighty": 2663,
      "double": 2664,
      "miserable": 2665,
      "restrain": 2666,
      "devour": 2667,
      "delight": 2668,
      "buried": 2669,
      "purse": 2670,
      "trades": 2671,
      "horn": 2672,
      "humour": 2673,
      "humility": 2674,
      "humbly": 2675,
      "kneel": 2676,
      "itories": 2677,
      "drink": 2678,
      "title": 2679,
      "weeping": 2680,
      "design": 2681,
      "rights": 2682,
      "possible": 2683,
      "accused": 2684,
      "mined": 2685,
      "minds": 2686,
      "monster": 2687,
      "bids": 2688,
      "carries": 2689,
      "clean": 2690,
      "grief": 2691,
      "jealous": 2692,
      "steel": 2693,
      "malicious": 2694,
      "malign": 2695,
      "fires": 2696,
      "actions": 2697,
      "officers": 2698,
      "evil": 2699,
      "throng": 2700,
      "fortunes": 2701,
      "drawn": 2702,
      "dragon": 2703,
      "suffering": 2704,
      "bric": 2705,
      "lately": 2706,
      "surname": 2707,
      "meantime": 2708,
      "advised": 2709,
      "advantage": 2710,
      "confess": 2711,
      "confusion": 2712,
      "traitors": 2713,
      "wretch": 2714,
      "witch": 2715,
      "happiness": 2716,
      "subtle": 2717,
      "poisonous": 2718,
      "praises": 2719,
      "hurl": 2720,
      "hardly": 2721,
      "cherish": 2722,
      "silent": 2723,
      "conditions": 2724,
      "cros": 2725,
      "cross": 2726,
      "water": 2727,
      "waters": 2728,
      "throats": 2729,
      "relent": 2730,
      "troubl": 2731,
      "tempted": 2732,
      "dreams": 2733,
      "battles": 2734,
      "framed": 2735,
      "richard": 2736,
      "sights": 2737,
      "amongst": 2738,
      "ignorant": 2739,
      "chamberlain": 2740,
      "cushion": 2741,
      "claim": 2742,
      "election": 2743,
      "imagine": 2744,
      "number": 2745,
      "plot": 2746,
      "vouchsafe": 2747,
      "refuse": 2748,
      "respected": 2749,
      "determined": 2750,
      "choly": 2751,
      "sickly": 2752,
      "entertainment": 2753,
      "extremity": 2754,
      "piece": 2755,
      "damned": 2756,
      "finds": 2757,
      "waked": 2758,
      "suppliant": 2759,
      "shore": 2760,
      "pleasures": 2761,
      "authority": 2762,
      "prepared": 2763,
      "approbation": 2764,
      "committed": 2765,
      "benefit": 2766,
      "knaves": 2767,
      "occup": 2768,
      "slander": 2769,
      "wisdom": 2770,
      "thrive": 2771,
      "insolence": 2772,
      "rebellion": 2773,
      "retire": 2774,
      "nobler": 2775,
      "several": 2776,
      "condemned": 2777,
      "success": 2778,
      "territories": 2779,
      "conduct": 2780,
      "apparent": 2781,
      "gratis": 2782,
      "courtesy": 2783,
      "hungry": 2784,
      "cruel": 2785,
      "fashion": 2786,
      "fliers": 2787,
      "girl": 2788,
      "journe": 2789,
      "kites": 2790,
      "sanctuary": 2791,
      "trenches": 2792,
      "vulgar": 2793,
      "yonder": 2794,
      "thinking": 2795,
      "england": 2796,
      "seize": 2797,
      "secret": 2798,
      "butterfly": 2799,
      "confirm": 2800,
      "magistr": 2801,
      "simple": 2802,
      "ference": 2803,
      "bottom": 2804,
      "guiltless": 2805,
      "companion": 2806,
      "grieves": 2807,
      "tarquin": 2808,
      "numbers": 2809,
      "prosperity": 2810,
      "trumpets": 2811,
      "circum": 2812,
      "emulation": 2813,
      "iety": 2814,
      "ludlow": 2815,
      "rascal": 2816,
      "school": 2817,
      "thwack": 2818,
      "reconci": 2819,
      "melancholy": 2820,
      "league": 2821,
      "chertsey": 2822,
      "especially": 2823,
      "liberties": 2824,
      "highest": 2825,
      "adversaries": 2826,
      "conquer": 2827,
      "marquess": 2828,
      "supreme": 2829,
      "ambitious": 2830,
      "distribut": 2831,
      "dissentious": 2832,
      "excellent": 2833,
      "perpetual": 2834,
      "treacherous": 2835,
      "plantagen": 2836,
      "'!": 2837,
      ".--": 2838,
      ":'": 2839,
      "ah": 2840,
      "ale": 2841,
      "ace": 2842,
      "awe": 2843,
      "ali": 2844,
      "avo": 2845,
      "aim": 2846,
      "awake": 2847,
      "bb": 2848,
      "bas": 2849,
      "bare": 2850,
      "bol": 2851,
      "boun": 2852,
      "bout": 2853,
      "bul": 2854,
      "bend": 2855,
      "bill": 2856,
      "bright": 2857,
      "bows": 2858,
      "bats": 2859,
      "bones": 2860,
      "block": 2861,
      "cay": 2862,
      "cta": 2863,
      "coff": 2864,
      "cates": 2865,
      "clip": 2866,
      "camp": 2867,
      "chaste": 2868,
      "dst": 2869,
      "dry": 2870,
      "dang": 2871,
      "dged": 2872,
      "dows": 2873,
      "dute": 2874,
      "eu": 2875,
      "ese": 2876,
      "eous": 2877,
      "eded": 2878,
      "emer": 2879,
      "east": 2880,
      "fu": 2881,
      "fen": 2882,
      "fro": 2883,
      "fed": 2884,
      "fif": 2885,
      "fain": 2886,
      "fru": 2887,
      "fted": 2888,
      "fond": 2889,
      "faint": 2890,
      "gan": 2891,
      "gal": 2892,
      "gall": 2893,
      "gid": 2894,
      "gate": 2895,
      "gthen": 2896,
      "gul": 2897,
      "gard": 2898,
      "ggest": 2899,
      "hy": 2900,
      "hound": 2901,
      "ire": 2902,
      "ild": 2903,
      "ick": 2904,
      "ilor": 2905,
      "kn": 2906,
      "kin": 2907,
      "kno": 2908,
      "kni": 2909,
      "lur": 2910,
      "lent": 2911,
      "lance": 2912,
      "liness": 2913,
      "linter": 2914,
      "lond": 2915,
      "mow": 2916,
      "mould": 2917,
      "mbr": 2918,
      "muse": 2919,
      "mits": 2920,
      "msey": 2921,
      "nine": 2922,
      "ners": 2923,
      "nourish": 2924,
      "os": 2925,
      "ome": 2926,
      "oath": 2927,
      "oted": 2928,
      "orest": 2929,
      "pin": 2930,
      "pen": 2931,
      "pus": 2932,
      "ping": 2933,
      "pir": 2934,
      "ply": 2935,
      "pant": 2936,
      "pul": 2937,
      "paint": 2938,
      "puff": 2939,
      "rt": 2940,
      "rat": 2941,
      "rus": 2942,
      "rut": 2943,
      "rare": 2944,
      "rats": 2945,
      "rising": 2946,
      "sn": 2947,
      "sat": 2948,
      "sme": 2949,
      "sli": 2950,
      "sco": 2951,
      "snow": 2952,
      "sple": 2953,
      "swell": 2954,
      "sink": 2955,
      "swo": 2956,
      "smother": 2957,
      "sins": 2958,
      "ssion": 2959,
      "slow": 2960,
      "ssed": 2961,
      "slip": 2962,
      "swore": 2963,
      "sounds": 2964,
      "smiles": 2965,
      "tou": 2966,
      "tus": 2967,
      "tal": 2968,
      "twel": 2969,
      "tidings": 2970,
      "uge": 2971,
      "uster": 2972,
      "uity": 2973,
      "uded": 2974,
      "van": 2975,
      "var": 2976,
      "vain": 2977,
      "vau": 2978,
      "vast": 2979,
      "vows": 2980,
      "wd": 2981,
      "wl": 2982,
      "wof": 2983,
      "ware": 2984,
      "wal": 2985,
      "wag": 2986,
      "wave": 2987,
      "whel": 2988,
      "walk": 2989,
      "winter": 2990,
      "wander": 2991,
      "xed": 2992,
      "zar": 2993,
      "zounds": 2994,
      "thrust": 2995,
      "oured": 2996,
      "thed": 2997,
      "angl": 2998,
      "ansport": 2999,
      "insu": 3000,
      "inte": 3001,
      "inous": 3002,
      "inces": 3003,
      "intell": 3004,
      "ints": 3005,
      "invent": 3006,
      "infection": 3007,
      "instruction": 3008,
      "instinct": 3009,
      "incapa": 3010,
      "intended": 3011,
      "reve": 3012,
      "revo": 3013,
      "rejo": 3014,
      "resc": 3015,
      "rection": 3016,
      "rebu": 3017,
      "relieve": 3018,
      "remor": 3019,
      "remove": 3020,
      "resign": 3021,
      "regard": 3022,
      "ening": 3023,
      "ensuing": 3024,
      "erwhel": 3025,
      "orph": 3026,
      "att": 3027,
      "atone": 3028,
      "ature": 3029,
      "atitude": 3030,
      "ative": 3031,
      "stat": 3032,
      "stol": 3033,
      "stall": 3034,
      "stif": 3035,
      "stain": 3036,
      "stard": 3037,
      "stance": 3038,
      "station": 3039,
      "stem": 3040,
      "story": 3041,
      "stuff": 3042,
      "isome": 3043,
      "aring": 3044,
      "arum": 3045,
      "arded": 3046,
      "argu": 3047,
      "llable": 3048,
      "llowe": 3049,
      "llstones": 3050,
      "heat": 3051,
      "height": 3052,
      "meth": 3053,
      "meal": 3054,
      "nose": 3055,
      "hale": 3056,
      "halt": 3057,
      "haps": 3058,
      "vex": 3059,
      "veil": 3060,
      "itch": 3061,
      "least": 3062,
      "seat": 3063,
      "seld": 3064,
      "sely": 3065,
      "sevent": 3066,
      "season": 3067,
      "bere": 3068,
      "beam": 3069,
      "betr": 3070,
      "belike": 3071,
      "belong": 3072,
      "bestri": 3073,
      "becomes": 3074,
      "behalf": 3075,
      "beware": 3076,
      "ceit": 3077,
      "cement": 3078,
      "wide": 3079,
      "widows": 3080,
      "wet": 3081,
      "wears": 3082,
      "weigh": 3083,
      "dep": 3084,
      "deth": 3085,
      "deal": 3086,
      "decl": 3087,
      "deity": 3088,
      "decre": 3089,
      "debt": 3090,
      "deform": 3091,
      "decess": 3092,
      "debase": 3093,
      "dews": 3094,
      "decay": 3095,
      "deceit": 3096,
      "asking": 3097,
      "assemb": 3098,
      "assemble": 3099,
      "rog": 3100,
      "roof": 3101,
      "chy": 3102,
      "chang": 3103,
      "chances": 3104,
      "forbid": 3105,
      "forced": 3106,
      "forsake": 3107,
      "forsworn": 3108,
      "utch": 3109,
      "aying": 3110,
      "edi": 3111,
      "lion": 3112,
      "licit": 3113,
      "lived": 3114,
      "lift": 3115,
      "lihood": 3116,
      "hie": 3117,
      "hip": 3118,
      "cog": 3119,
      "cove": 3120,
      "coal": 3121,
      "colour": 3122,
      "cotus": 3123,
      "sola": 3124,
      "solicit": 3125,
      "ourge": 3126,
      "gos": 3127,
      "rible": 3128,
      "perem": 3129,
      "also": 3130,
      "aloud": 3131,
      "alarum": 3132,
      "ghan": 3133,
      "ghost": 3134,
      "mood": 3135,
      "moiety": 3136,
      "urged": 3137,
      "allow": 3138,
      "uns": 3139,
      "unti": 3140,
      "unfe": 3141,
      "unken": 3142,
      "unworthy": 3143,
      "unning": 3144,
      "unjust": 3145,
      "uncles": 3146,
      "ungrateful": 3147,
      "butt": 3148,
      "adventure": 3149,
      "admits": 3150,
      "lover": 3151,
      "loins": 3152,
      "loving": 3153,
      "lowest": 3154,
      "lodged": 3155,
      "conce": 3156,
      "contr": 3157,
      "conven": 3158,
      "contem": 3159,
      "conjure": 3160,
      "conference": 3161,
      "door": 3162,
      "doom": 3163,
      "doors": 3164,
      "dozen": 3165,
      "rah": 3166,
      "rapt": 3167,
      "rages": 3168,
      "ravish": 3169,
      "idence": 3170,
      "map": 3171,
      "necks": 3172,
      "odds": 3173,
      "sied": 3174,
      "sister": 3175,
      "manacles": 3176,
      "whatsoever": 3177,
      "correct": 3178,
      "corrup": 3179,
      "verdict": 3180,
      "versely": 3181,
      "ents": 3182,
      "tie": 3183,
      "tired": 3184,
      "tiber": 3185,
      "fec": 3186,
      "feits": 3187,
      "feeding": 3188,
      "marr": 3189,
      "sume": 3190,
      "super": 3191,
      "suits": 3192,
      "suggest": 3193,
      "wills": 3194,
      "willingly": 3195,
      "compass": 3196,
      "lame": 3197,
      "bleed": 3198,
      "bleeding": 3199,
      "blessed": 3200,
      "fox": 3201,
      "followe": 3202,
      "geese": 3203,
      "ify": 3204,
      "term": 3205,
      "ters": 3206,
      "terrible": 3207,
      "whiles": 3208,
      "stern": 3209,
      "sterity": 3210,
      "cities": 3211,
      "shr": 3212,
      "shre": 3213,
      "shown": 3214,
      "shold": 3215,
      "shining": 3216,
      "upbra": 3217,
      "warm": 3218,
      "warn": 3219,
      "pot": 3220,
      "poorest": 3221,
      "points": 3222,
      "glorious": 3223,
      "faction": 3224,
      "facti": 3225,
      "fabric": 3226,
      "canor": 3227,
      "canon": 3228,
      "canop": 3229,
      "serves": 3230,
      "teous": 3231,
      "hog": 3232,
      "holes": 3233,
      "hoot": 3234,
      "princes": 3235,
      "transport": 3236,
      "ately": 3237,
      "brand": 3238,
      "whoever": 3239,
      "plex": 3240,
      "pless": 3241,
      "cap": 3242,
      "capt": 3243,
      "caused": 3244,
      "caught": 3245,
      "umb": 3246,
      "ump": 3247,
      "ault": 3248,
      "audience": 3249,
      "gil": 3250,
      "gion": 3251,
      "thereto": 3252,
      "tail": 3253,
      "taste": 3254,
      "tailor": 3255,
      "sense": 3256,
      "sends": 3257,
      "sensible": 3258,
      "ctise": 3259,
      "file": 3260,
      "fice": 3261,
      "fiends": 3262,
      "fiery": 3263,
      "figure": 3264,
      "seest": 3265,
      "seeking": 3266,
      "foremost": 3267,
      "forehead": 3268,
      "likelihood": 3269,
      "preci": 3270,
      "precious": 3271,
      "prehen": 3272,
      "prefer": 3273,
      "prevented": 3274,
      "pression": 3275,
      "predecess": 3276,
      "ilty": 3277,
      "ildeth": 3278,
      "bore": 3279,
      "boon": 3280,
      "book": 3281,
      "board": 3282,
      "sack": 3283,
      "sacri": 3284,
      "sirrah": 3285,
      "lovelier": 3286,
      "club": 3287,
      "cluster": 3288,
      "cession": 3289,
      "cesses": 3290,
      "whereto": 3291,
      "whereof": 3292,
      "nical": 3293,
      "nicanor": 3294,
      "selfsame": 3295,
      "divi": 3296,
      "dign": 3297,
      "digest": 3298,
      "distinct": 3299,
      "dieted": 3300,
      "herds": 3301,
      "herself": 3302,
      "hercu": 3303,
      "indu": 3304,
      "spy": 3305,
      "spit": 3306,
      "spent": 3307,
      "split": 3308,
      "splinter": 3309,
      "cian": 3310,
      "cies": 3311,
      "prote": 3312,
      "prodi": 3313,
      "protest": 3314,
      "eping": 3315,
      "vessel": 3316,
      "counsell": 3317,
      "green": 3318,
      "greet": 3319,
      "discre": 3320,
      "displeasure": 3321,
      "discover": 3322,
      "millstones": 3323,
      "nail": 3324,
      "graces": 3325,
      "inkled": 3326,
      "extol": 3327,
      "exped": 3328,
      "exerc": 3329,
      "ladyship": 3330,
      "pert": 3331,
      "peril": 3332,
      "permit": 3333,
      "perhaps": 3334,
      "abl": 3335,
      "ably": 3336,
      "abortive": 3337,
      "acter": 3338,
      "access": 3339,
      "accursed": 3340,
      "lesson": 3341,
      "trial": 3342,
      "trick": 3343,
      "tricks": 3344,
      "mbling": 3345,
      "quoth": 3346,
      "quench": 3347,
      "telling": 3348,
      "mothers": 3349,
      "apprehen": 3350,
      "dukes": 3351,
      "hasty": 3352,
      "places": 3353,
      "plagu": 3354,
      "tooth": 3355,
      "render": 3356,
      "shep": 3357,
      "strous": 3358,
      "named": 3359,
      "greatness": 3360,
      "broken": 3361,
      "broils": 3362,
      "curs": 3363,
      "cursing": 3364,
      "grub": 3365,
      "grud": 3366,
      "sentence": 3367,
      "sentenced": 3368,
      "babe": 3369,
      "bade": 3370,
      "baited": 3371,
      "bastar": 3372,
      "ptory": 3373,
      "affair": 3374,
      "afford": 3375,
      "vice": 3376,
      "viper": 3377,
      "standers": 3378,
      "sets": 3379,
      "chide": 3380,
      "prize": 3381,
      "privile": 3382,
      "parted": 3383,
      "partly": 3384,
      "partake": 3385,
      "partner": 3386,
      "jot": 3387,
      "stored": 3388,
      "stoop": 3389,
      "stopp": 3390,
      "beards": 3391,
      "countrymen": 3392,
      "pace": 3393,
      "pause": 3394,
      "paper": 3395,
      "pawn": 3396,
      "tled": 3397,
      "bragg": 3398,
      "estate": 3399,
      "establ": 3400,
      "pile": 3401,
      "pick": 3402,
      "pikes": 3403,
      "pierc": 3404,
      "charitable": 3405,
      "character": 3406,
      "versy": 3407,
      "blow": 3408,
      "consumed": 3409,
      "showing": 3410,
      "calls": 3411,
      "turned": 3412,
      "merri": 3413,
      "puts": 3414,
      "brotherhood": 3415,
      "trees": 3416,
      "treason": 3417,
      "trembling": 3418,
      "liege": 3419,
      "impatience": 3420,
      "imped": 3421,
      "impression": 3422,
      "scri": 3423,
      "scars": 3424,
      "scrat": 3425,
      "scourge": 3426,
      "assault": 3427,
      "flout": 3428,
      "flint": 3429,
      "fluity": 3430,
      "gentry": 3431,
      "plu": 3432,
      "plough": 3433,
      "begins": 3434,
      "fathers": 3435,
      "guile": 3436,
      "guilty": 3437,
      "tency": 3438,
      "igence": 3439,
      "helms": 3440,
      "deni": 3441,
      "dens": 3442,
      "replied": 3443,
      "dearly": 3444,
      "truer": 3445,
      "kindle": 3446,
      "kindness": 3447,
      "elders": 3448,
      "write": 3449,
      "wrangl": 3450,
      "wrinkled": 3451,
      "insur": 3452,
      "juno": 3453,
      "value": 3454,
      "intends": 3455,
      "afternoon": 3456,
      "emplo": 3457,
      "killed": 3458,
      "longer": 3459,
      "parce": 3460,
      "wales": 3461,
      "waving": 3462,
      "offices": 3463,
      "keeper": 3464,
      "joyful": 3465,
      "bodies": 3466,
      "crest": 3467,
      "creeping": 3468,
      "tedious": 3469,
      "shamed": 3470,
      "spot": 3471,
      "spoils": 3472,
      "drew": 3473,
      "dregs": 3474,
      "dreaded": 3475,
      "mischief": 3476,
      "passing": 3477,
      "specta": 3478,
      "delivers": 3479,
      "delivery": 3480,
      "build": 3481,
      "buildeth": 3482,
      "falling": 3483,
      "train": 3484,
      "strew": 3485,
      "horses": 3486,
      "bestow": 3487,
      "compas": 3488,
      "compounded": 3489,
      "blaze": 3490,
      "courage": 3491,
      "craves": 3492,
      "craft": 3493,
      "drunken": 3494,
      "rank": 3495,
      "tite": 3496,
      "foolish": 3497,
      "accident": 3498,
      "fitly": 3499,
      "fitter": 3500,
      "hatches": 3501,
      "minded": 3502,
      "monarch": 3503,
      "months": 3504,
      "monstrous": 3505,
      "remembr": 3506,
      "question": 3507,
      "virtues": 3508,
      "carried": 3509,
      "chase": 3510,
      "chair": 3511,
      "chaff": 3512,
      "careful": 3513,
      "calamity": 3514,
      "lads": 3515,
      "pardons": 3516,
      "interpret": 3517,
      "interior": 3518,
      "intercession": 3519,
      "steal": 3520,
      "stead": 3521,
      "steep": 3522,
      "meeting": 3523,
      "beating": 3524,
      "worthily": 3525,
      "thankfulness": 3526,
      "falsely": 3527,
      "evils": 3528,
      "evident": 3529,
      "evidence": 3530,
      "chosen": 3531,
      "fortunate": 3532,
      "revengeful": 3533,
      "hunt": 3534,
      "hunger": 3535,
      "hangmen": 3536,
      "whet": 3537,
      "wheel": 3538,
      "leaden": 3539,
      "petty": 3540,
      "appetite": 3541,
      "sufferance": 3542,
      "grows": 3543,
      "growth": 3544,
      "surfeit": 3545,
      "surfeits": 3546,
      "yielded": 3547,
      "meaning": 3548,
      "confound": 3549,
      "safely": 3550,
      "safety": 3551,
      "plainly": 3552,
      "commanding": 3553,
      "devils": 3554,
      "devilish": 3555,
      "bites": 3556,
      "censured": 3557,
      "overta": 3558,
      "scorns": 3559,
      "wanton": 3560,
      "strains": 3561,
      "highness": 3562,
      "needs": 3563,
      "counterpo": 3564,
      "counterfeit": 3565,
      "sleeping": 3566,
      "cried": 3567,
      "practise": 3568,
      "towns": 3569,
      "beholding": 3570,
      "despite": 3571,
      "desperate": 3572,
      "stronger": 3573,
      "breaths": 3574,
      "breathing": 3575,
      "flattery": 3576,
      "wrongs": 3577,
      "barr": 3578,
      "barren": 3579,
      "burnt": 3580,
      "burning": 3581,
      "smil": 3582,
      "defence": 3583,
      "lightly": 3584,
      "silk": 3585,
      "silence": 3586,
      "lamentation": 3587,
      "lamentations": 3588,
      "pointed": 3589,
      "prisoners": 3590,
      "proceeds": 3591,
      "murdering": 3592,
      "murderous": 3593,
      "violence": 3594,
      "conspirators": 3595,
      "crush": 3596,
      "embar": 3597,
      "embas": 3598,
      "fouler": 3599,
      "guest": 3600,
      "tingly": 3601,
      "watch": 3602,
      "ishes": 3603,
      "sisting": 3604,
      "supper": 3605,
      "suppose": 3606,
      "directly": 3607,
      "directitude": 3608,
      "counsels": 3609,
      "breasts": 3610,
      "swearing": 3611,
      "dreamt": 3612,
      "obeys": 3613,
      "strengths": 3614,
      "daughters": 3615,
      "hugg": 3616,
      "pitation": 3617,
      "pains": 3618,
      "painted": 3619,
      "windows": 3620,
      "thorough": 3621,
      "stinking": 3622,
      "methoughts": 3623,
      "tides": 3624,
      "mutinies": 3625,
      "executioner": 3626,
      "bisson": 3627,
      "cushions": 3628,
      "clothe": 3629,
      "centu": 3630,
      "darken": 3631,
      "elected": 3632,
      "object": 3633,
      "plots": 3634,
      "beasts": 3635,
      "beastly": 3636,
      "neighbour": 3637,
      "sixth": 3638,
      "sickness": 3639,
      "entreaties": 3640,
      "shouts": 3641,
      "shouting": 3642,
      "extremest": 3643,
      "breaking": 3644,
      "victorious": 3645,
      "briefly": 3646,
      "freed": 3647,
      "frank": 3648,
      "franch": 3649,
      "frantic": 3650,
      "gaze": 3651,
      "smoking": 3652,
      "smooth": 3653,
      "wakes": 3654,
      "haply": 3655,
      "weakness": 3656,
      "feeble": 3657,
      "complaints": 3658,
      "pratest": 3659,
      "authorities": 3660,
      "prosperous": 3661,
      "approaches": 3662,
      "begging": 3663,
      "beggars": 3664,
      "advanced": 3665,
      "humane": 3666,
      "prophet": 3667,
      "prophecies": 3668,
      "dispositions": 3669,
      "durst": 3670,
      "during": 3671,
      "famish": 3672,
      "famously": 3673,
      "knave": 3674,
      "length": 3675,
      "lengthen": 3676,
      "occas": 3677,
      "porter": 3678,
      "passage": 3679,
      "salt": 3680,
      "springs": 3681,
      "threw": 3682,
      "threshold": 3683,
      "inclin": 3684,
      "insolent": 3685,
      "infected": 3686,
      "require": 3687,
      "requires": 3688,
      "starve": 3689,
      "nobleness": 3690,
      "ingrateful": 3691,
      "ingratitude": 3692,
      "wealth": 3693,
      "conclude": 3694,
      "concluded": 3695,
      "successes": 3696,
      "summer": 3697,
      "summon": 3698,
      "terror": 3699,
      "shortly": 3700,
      "posture": 3701,
      "properly": 3702,
      "greece": 3703,
      "chiefest": 3704,
      "wonderful": 3705,
      "accusers": 3706,
      "accusations": 3707,
      "ministers": 3708,
      "darkness": 3709,
      "eagle": 3710,
      "eagles": 3711,
      "flame": 3712,
      "jured": 3713,
      "large": 3714,
      "match": 3715,
      "mourn": 3716,
      "malmsey": 3717,
      "midst": 3718,
      "ports": 3719,
      "rumour": 3720,
      "syllable": 3721,
      "swift": 3722,
      "torment": 3723,
      "envied": 3724,
      "envious": 3725,
      "stoutness": 3726,
      "heaps": 3727,
      "dearer": 3728,
      "dearest": 3729,
      "forsook": 3730,
      "forsooth": 3731,
      "soothing": 3732,
      "solem": 3733,
      "butcheries": 3734,
      "admitted": 3735,
      "taunts": 3736,
      "abhorr": 3737,
      "tribes": 3738,
      "affections": 3739,
      "flowers": 3740,
      "tyranny": 3741,
      "tyrannical": 3742,
      "controversy": 3743,
      "earnestness": 3744,
      "temples": 3745,
      "temperately": 3746,
      "shields": 3747,
      "worthier": 3748,
      "worthiest": 3749,
      "prompts": 3750,
      "flatterers": 3751,
      "pronounce": 3752,
      "pronounced": 3753,
      "embracements": 3754,
      "christian": 3755,
      "dwellest": 3756,
      "etern": 3757,
      "equal": 3758,
      "flesh": 3759,
      "front": 3760,
      "lungs": 3761,
      "mirth": 3762,
      "twice": 3763,
      "vassals": 3764,
      "winged": 3765,
      "wolf": 3766,
      "infant": 3767,
      "inherited": 3768,
      "instruments": 3769,
      "redeemer": 3770,
      "revolt": 3771,
      "resisted": 3772,
      "italy": 3773,
      "seconds": 3774,
      "besides": 3775,
      "weighty": 3776,
      "devoted": 3777,
      "deceived": 3778,
      "limbs": 3779,
      "addition": 3780,
      "adieu": 3781,
      "nettle": 3782,
      "nearer": 3783,
      "manifest": 3784,
      "marvellous": 3785,
      "suitors": 3786,
      "warriors": 3787,
      "bruised": 3788,
      "capital": 3789,
      "preparation": 3790,
      "cloudy": 3791,
      "spacious": 3792,
      "countenance": 3793,
      "discontented": 3794,
      "dissembling": 3795,
      "vocate": 3796,
      "example": 3797,
      "period": 3798,
      "abundance": 3799,
      "acquaint": 3800,
      "affrights": 3801,
      "priests": 3802,
      "heavily": 3803,
      "rudely": 3804,
      "insinuating": 3805,
      "empty": 3806,
      "opposite": 3807,
      "opposers": 3808,
      "continued": 3809,
      "horns": 3810,
      "crosby": 3811,
      "troublous": 3812,
      "journey": 3813,
      "magistrates": 3814,
      "circumstance": 3815,
      "rascals": 3816,
      "reconcile": 3817,
      "plantagenet": 3818,
      "avoid": 3819,
      "coffin": 3820,
      "catesby": 3821,
      "dangers": 3822,
      "duteous": 3823,
      "fruit": 3824,
      "giddy": 3825,
      "gulf": 3826,
      "knit": 3827,
      "knife": 3828,
      "london": 3829,
      "panting": 3830,
      "rushes": 3831,
      "rutland": 3832,
      "spleen": 3833,
      "swoon": 3834,
      "twelve": 3835,
      "vaughan": 3836,
      "woful": 3837,
      "wandering": 3838,
      "zards": 3839,
      "insult": 3840,
      "intelligence": 3841,
      "incapable": 3842,
      "reverend": 3843,
      "revoke": 3844,
      "rejoice": 3845,
      "rebuke": 3846,
      "remorse": 3847,
      "erwhelm": 3848,
      "orphans": 3849,
      "stiff": 3850,
      "betray": 3851,
      "declines": 3852,
      "deformity": 3853,
      "assembly": 3854,
      "changed": 3855,
      "solace": 3856,
      "peremptory": 3857,
      "until": 3858,
      "convenient": 3859,
      "corrupt": 3860,
      "superfluity": 3861,
      "followed": 3862,
      "factious": 3863,
      "canopy": 3864,
      "captain": 3865,
      "tailors": 3866,
      "precipitation": 3867,
      "predecessors": 3868,
      "sacrifice": 3869,
      "clubs": 3870,
      "clusters": 3871,
      "distinctly": 3872,
      "hercules": 3873,
      "exercise": 3874,
      "bastards": 3875,
      "affairs": 3876,
      "privilege": 3877,
      "piercing": 3878,
      "impediment": 3879,
      "wrangling": 3880,
      "employ": 3881,
      "monarchy": 3882,
      "interpretation": 3883,
      "occasion": 3884,
      "syllables": 3885,
      "':": 3886,
      "'--": 3887,
      ";--": 3888,
      "?'": 3889,
      "av": 3890,
      "aw": 3891,
      "ade": 3892,
      "ama": 3893,
      "aster": 3894,
      "apo": 3895,
      "aca": 3896,
      "aven": 3897,
      "award": 3898,
      "afri": 3899,
      "awn": 3900,
      "ava": 3901,
      "acts": 3902,
      "afoot": 3903,
      "acks": 3904,
      "avouch": 3905,
      "awak": 3906,
      "aunt": 3907,
      "apron": 3908,
      "aims": 3909,
      "awaked": 3910,
      "athed": 3911,
      "apert": 3912,
      "bin": 3913,
      "ben": 3914,
      "bing": 3915,
      "bir": 3916,
      "bal": 3917,
      "ball": 3918,
      "bent": 3919,
      "bate": 3920,
      "bine": 3921,
      "bath": 3922,
      "bab": 3923,
      "bars": 3924,
      "beral": 3925,
      "batter": 3926,
      "barm": 3927,
      "bought": 3928,
      "brown": 3929,
      "bits": 3930,
      "bile": 3931,
      "bite": 3932,
      "bond": 3933,
      "bility": 3934,
      "bended": 3935,
      "bally": 3936,
      "bbled": 3937,
      "bingly": 3938,
      "balms": 3939,
      "boured": 3940,
      "cing": 3941,
      "cli": 3942,
      "chere": 3943,
      "cam": 3944,
      "cion": 3945,
      "cil": 3946,
      "cul": 3947,
      "cend": 3948,
      "cuck": 3949,
      "chas": 3950,
      "cleave": 3951,
      "cled": 3952,
      "cran": 3953,
      "cats": 3954,
      "cket": 3955,
      "crust": 3956,
      "cunning": 3957,
      "don": 3958,
      "dut": 3959,
      "dol": 3960,
      "dun": 3961,
      "dent": 3962,
      "due": 3963,
      "dag": 3964,
      "ders": 3965,
      "dment": 3966,
      "dab": 3967,
      "duck": 3968,
      "dger": 3969,
      "dast": 3970,
      "dges": 3971,
      "dash": 3972,
      "dally": 3973,
      "dances": 3974,
      "dries": 3975,
      "dallies": 3976,
      "darts": 3977,
      "dantly": 3978,
      "drench": 3979,
      "dumb": 3980,
      "ek": 3981,
      "een": 3982,
      "eve": 3983,
      "eun": 3984,
      "elo": 3985,
      "egi": 3986,
      "ered": 3987,
      "eva": 3988,
      "event": 3989,
      "ebus": 3990,
      "eight": 3991,
      "egg": 3992,
      "ected": 3993,
      "eject": 3994,
      "epest": 3995,
      "fs": 3996,
      "fou": 3997,
      "fes": 3998,
      "flo": 3999,
      "fter": 4000,
      "fers": 4001,
      "fish": 4002,
      "fts": 4003,
      "fury": 4004,
      "fins": 4005,
      "fits": 4006,
      "fled": 4007,
      "flaw": 4008,
      "flight": 4009,
      "fford": 4010,
      "french": 4011,
      "fishes": 4012,
      "gy": 4013,
      "gus": 4014,
      "gun": 4015,
      "gif": 4016,
      "gers": 4017,
      "gap": 4018,
      "ghast": 4019,
      "gles": 4020,
      "gments": 4021,
      "gloves": 4022,
      "gash": 4023,
      "gations": 4024,
      "gorous": 4025,
      "glean": 4026,
      "gulls": 4027,
      "huse": 4028,
      "hates": 4029,
      "hint": 4030,
      "harms": 4031,
      "harts": 4032,
      "ii": 4033,
      "ip": 4034,
      "ito": 4035,
      "ici": 4036,
      "irer": 4037,
      "ided": 4038,
      "iest": 4039,
      "iable": 4040,
      "iled": 4041,
      "icut": 4042,
      "ief": 4043,
      "iments": 4044,
      "icle": 4045,
      "ical": 4046,
      "icks": 4047,
      "iliar": 4048,
      "jor": 4049,
      "jes": 4050,
      "jun": 4051,
      "jet": 4052,
      "jump": 4053,
      "jacks": 4054,
      "knot": 4055,
      "kam": 4056,
      "kers": 4057,
      "kick": 4058,
      "las": 4059,
      "lch": 4060,
      "lone": 4061,
      "lout": 4062,
      "lous": 4063,
      "link": 4064,
      "loud": 4065,
      "lph": 4066,
      "lute": 4067,
      "lulls": 4068,
      "luge": 4069,
      "loured": 4070,
      "lump": 4071,
      "mm": 4072,
      "mus": 4073,
      "mand": 4074,
      "mas": 4075,
      "mun": 4076,
      "mone": 4077,
      "mil": 4078,
      "mish": 4079,
      "mise": 4080,
      "mouse": 4081,
      "mates": 4082,
      "malk": 4083,
      "mph": 4084,
      "mmed": 4085,
      "mask": 4086,
      "mmock": 4087,
      "mations": 4088,
      "mfre": 4089,
      "mming": 4090,
      "mpus": 4091,
      "nt": 4092,
      "nu": 4093,
      "non": 4094,
      "nes": 4095,
      "nly": 4096,
      "nup": 4097,
      "nant": 4098,
      "nation": 4099,
      "nals": 4100,
      "nations": 4101,
      "oa": 4102,
      "ox": 4103,
      "oce": 4104,
      "oke": 4105,
      "othing": 4106,
      "oms": 4107,
      "ogue": 4108,
      "pu": 4109,
      "pol": 4110,
      "pam": 4111,
      "pup": 4112,
      "pho": 4113,
      "pate": 4114,
      "pple": 4115,
      "pout": 4116,
      "pil": 4117,
      "path": 4118,
      "pure": 4119,
      "pence": 4120,
      "pill": 4121,
      "ption": 4122,
      "pene": 4123,
      "pound": 4124,
      "pins": 4125,
      "pint": 4126,
      "pite": 4127,
      "pounds": 4128,
      "pages": 4129,
      "parent": 4130,
      "rs": 4131,
      "ror": 4132,
      "ris": 4133,
      "rhe": 4134,
      "rance": 4135,
      "rates": 4136,
      "rang": 4137,
      "rons": 4138,
      "rors": 4139,
      "raying": 4140,
      "sof": 4141,
      "sour": 4142,
      "sly": 4143,
      "smar": 4144,
      "ssel": 4145,
      "slet": 4146,
      "sau": 4147,
      "spre": 4148,
      "sque": 4149,
      "sine": 4150,
      "sdeath": 4151,
      "sset": 4152,
      "snat": 4153,
      "sought": 4154,
      "sours": 4155,
      "sses": 4156,
      "scold": 4157,
      "swall": 4158,
      "smelt": 4159,
      "swol": 4160,
      "sconce": 4161,
      "ton": 4162,
      "tut": 4163,
      "tart": 4164,
      "tous": 4165,
      "tant": 4166,
      "tutus": 4167,
      "tind": 4168,
      "ture": 4169,
      "tard": 4170,
      "tatter": 4171,
      "taught": 4172,
      "tches": 4173,
      "task": 4174,
      "tuous": 4175,
      "twine": 4176,
      "twin": 4177,
      "tune": 4178,
      "tuns": 4179,
      "ume": 4180,
      "uch": 4181,
      "uly": 4182,
      "uca": 4183,
      "uments": 4184,
      "ually": 4185,
      "ustom": 4186,
      "uities": 4187,
      "ucement": 4188,
      "vou": 4189,
      "vin": 4190,
      "vor": 4191,
      "vand": 4192,
      "viz": 4193,
      "vag": 4194,
      "vil": 4195,
      "vator": 4196,
      "vies": 4197,
      "vitable": 4198,
      "wan": 4199,
      "wow": 4200,
      "wart": 4201,
      "wren": 4202,
      "wded": 4203,
      "wings": 4204,
      "wound": 4205,
      "wench": 4206,
      "waged": 4207,
      "wrench": 4208,
      "wishes": 4209,
      "xcom": 4210,
      "xander": 4211,
      "ying": 4212,
      "yarn": 4213,
      "yawn": 4214,
      "ympus": 4215,
      "yoke": 4216,
      "zon": 4217,
      "zed": 4218,
      "zzards": 4219,
      "thar": 4220,
      "thra": 4221,
      "thren": 4222,
      "thru": 4223,
      "thrown": 4224,
      "thom": 4225,
      "thigh": 4226,
      "throws": 4227,
      "thread": 4228,
      "thony": 4229,
      "thumb": 4230,
      "thief": 4231,
      "thwart": 4232,
      "ourer": 4233,
      "ouded": 4234,
      "oudest": 4235,
      "theme": 4236,
      "theft": 4237,
      "themes": 4238,
      "ane": 4239,
      "ank": 4240,
      "anch": 4241,
      "anet": 4242,
      "anks": 4243,
      "ancus": 4244,
      "anic": 4245,
      "annals": 4246,
      "anvil": 4247,
      "anthony": 4248,
      "iny": 4249,
      "inha": 4250,
      "inve": 4251,
      "inde": 4252,
      "incor": 4253,
      "inent": 4254,
      "inhere": 4255,
      "infir": 4256,
      "inward": 4257,
      "inshe": 4258,
      "inju": 4259,
      "inqui": 4260,
      "inches": 4261,
      "indirect": 4262,
      "invest": 4263,
      "inhuman": 4264,
      "infer": 4265,
      "insensible": 4266,
      "indign": 4267,
      "instead": 4268,
      "insisting": 4269,
      "injured": 4270,
      "invocate": 4271,
      "invin": 4272,
      "reth": 4273,
      "reed": 4274,
      "real": 4275,
      "remo": 4276,
      "recor": 4277,
      "rever": 4278,
      "reck": 4279,
      "resh": 4280,
      "regi": 4281,
      "reserv": 4282,
      "redu": 4283,
      "reful": 4284,
      "renew": 4285,
      "reel": 4286,
      "repri": 4287,
      "repa": 4288,
      "reput": 4289,
      "relie": 4290,
      "reach": 4291,
      "reins": 4292,
      "recre": 4293,
      "remis": 4294,
      "respe": 4295,
      "regar": 4296,
      "recomp": 4297,
      "repose": 4298,
      "repos": 4299,
      "remon": 4300,
      "recomfort": 4301,
      "redem": 4302,
      "rewards": 4303,
      "restore": 4304,
      "recommend": 4305,
      "rejour": 4306,
      "revel": 4307,
      "recover": 4308,
      "rections": 4309,
      "reproof": 4310,
      "resume": 4311,
      "enor": 4312,
      "ense": 4313,
      "ende": 4314,
      "enro": 4315,
      "enra": 4316,
      "ences": 4317,
      "ennoble": 4318,
      "envir": 4319,
      "enig": 4320,
      "enrich": 4321,
      "enclose": 4322,
      "engine": 4323,
      "entom": 4324,
      "ensn": 4325,
      "encompas": 4326,
      "enfranch": 4327,
      "erle": 4328,
      "ercome": 4329,
      "eration": 4330,
      "erbear": 4331,
      "erworn": 4332,
      "erborne": 4333,
      "ershade": 4334,
      "eros": 4335,
      "orb": 4336,
      "orn": 4337,
      "ority": 4338,
      "orac": 4339,
      "ortion": 4340,
      "ories": 4341,
      "orange": 4342,
      "orship": 4343,
      "ordin": 4344,
      "atta": 4345,
      "attempt": 4346,
      "atic": 4347,
      "atford": 4348,
      "attain": 4349,
      "attended": 4350,
      "attempted": 4351,
      "sty": 4352,
      "stle": 4353,
      "sting": 4354,
      "stur": 4355,
      "stum": 4356,
      "stars": 4357,
      "stuck": 4358,
      "stak": 4359,
      "stable": 4360,
      "stled": 4361,
      "stub": 4362,
      "stud": 4363,
      "staves": 4364,
      "stima": 4365,
      "stony": 4366,
      "starts": 4367,
      "stacles": 4368,
      "stale": 4369,
      "stick": 4370,
      "stitch": 4371,
      "sticks": 4372,
      "onward": 4373,
      "ongest": 4374,
      "isper": 4375,
      "isks": 4376,
      "user": 4377,
      "using": 4378,
      "usal": 4379,
      "usur": 4380,
      "usure": 4381,
      "usury": 4382,
      "arl": 4383,
      "arp": 4384,
      "arri": 4385,
      "arti": 4386,
      "arab": 4387,
      "arise": 4388,
      "arned": 4389,
      "arith": 4390,
      "arling": 4391,
      "armed": 4392,
      "armies": 4393,
      "artic": 4394,
      "ariety": 4395,
      "arrog": 4396,
      "llen": 4397,
      "ller": 4398,
      "lled": 4399,
      "llected": 4400,
      "lloa": 4401,
      "tock": 4402,
      "toss": 4403,
      "toil": 4404,
      "tomb": 4405,
      "today": 4406,
      "token": 4407,
      "topp": 4408,
      "tomorrow": 4409,
      "toys": 4410,
      "andal": 4411,
      "hed": 4412,
      "hew": 4413,
      "hecu": 4414,
      "hews": 4415,
      "hedge": 4416,
      "heinous": 4417,
      "mere": 4418,
      "meas": 4419,
      "mech": 4420,
      "meant": 4421,
      "methink": 4422,
      "mellow": 4423,
      "metic": 4424,
      "merely": 4425,
      "meek": 4426,
      "nods": 4427,
      "noses": 4428,
      "noisome": 4429,
      "novice": 4430,
      "hag": 4431,
      "hare": 4432,
      "haver": 4433,
      "havi": 4434,
      "hales": 4435,
      "haught": 4436,
      "haunt": 4437,
      "hares": 4438,
      "havoc": 4439,
      "hazards": 4440,
      "iton": 4441,
      "ites": 4442,
      "itly": 4443,
      "itent": 4444,
      "itate": 4445,
      "itance": 4446,
      "itud": 4447,
      "itic": 4448,
      "itution": 4449,
      "itably": 4450,
      "leg": 4451,
      "ley": 4452,
      "lehi": 4453,
      "leash": 4454,
      "leasing": 4455,
      "lewd": 4456,
      "legion": 4457,
      "levies": 4458,
      "lethar": 4459,
      "learned": 4460,
      "seth": 4461,
      "seas": 4462,
      "sess": 4463,
      "sedu": 4464,
      "separ": 4465,
      "sequi": 4466,
      "seats": 4467,
      "secure": 4468,
      "seated": 4469,
      "sewing": 4470,
      "select": 4471,
      "beit": 4472,
      "bethink": 4473,
      "beach": 4474,
      "bewr": 4475,
      "befall": 4476,
      "befal": 4477,
      "became": 4478,
      "beweep": 4479,
      "bewept": 4480,
      "bewail": 4481,
      "bels": 4482,
      "bewitch": 4483,
      "belch": 4484,
      "behavi": 4485,
      "cely": 4486,
      "ceremon": 4487,
      "whined": 4488,
      "whisper": 4489,
      "inging": 4490,
      "wipe": 4491,
      "wiped": 4492,
      "wizard": 4493,
      "wiping": 4494,
      "widens": 4495,
      "web": 4496,
      "weals": 4497,
      "weeded": 4498,
      "defor": 4499,
      "deck": 4500,
      "dess": 4501,
      "dete": 4502,
      "degre": 4503,
      "deserving": 4504,
      "deaf": 4505,
      "depart": 4506,
      "demer": 4507,
      "desc": 4508,
      "delive": 4509,
      "delay": 4510,
      "demon": 4511,
      "defect": 4512,
      "detest": 4513,
      "depop": 4514,
      "deceive": 4515,
      "deposed": 4516,
      "defaced": 4517,
      "defec": 4518,
      "debile": 4519,
      "deepest": 4520,
      "deluge": 4521,
      "deuca": 4522,
      "iron": 4523,
      "irons": 4524,
      "asy": 4525,
      "asso": 4526,
      "assu": 4527,
      "asers": 4528,
      "asunder": 4529,
      "asite": 4530,
      "asked": 4531,
      "asses": 4532,
      "ascent": 4533,
      "ashes": 4534,
      "ascend": 4535,
      "rod": 4536,
      "rove": 4537,
      "rogu": 4538,
      "roach": 4539,
      "room": 4540,
      "rooted": 4541,
      "chm": 4542,
      "chin": 4543,
      "chen": 4544,
      "ching": 4545,
      "chur": 4546,
      "chion": 4547,
      "chil": 4548,
      "channe": 4549,
      "chop": 4550,
      "chback": 4551,
      "chments": 4552,
      "chats": 4553,
      "chron": 4554,
      "myster": 4555,
      "ldst": 4556,
      "ldom": 4557,
      "forward": 4558,
      "forbear": 4559,
      "forged": 4560,
      "forges": 4561,
      "forbad": 4562,
      "forfeit": 4563,
      "forswore": 4564,
      "forswearing": 4565,
      "uted": 4566,
      "utes": 4567,
      "utte": 4568,
      "utish": 4569,
      "utel": 4570,
      "utches": 4571,
      "notwith": 4572,
      "notion": 4573,
      "notice": 4574,
      "notched": 4575,
      "edge": 4576,
      "edif": 4577,
      "edges": 4578,
      "ederate": 4579,
      "lico": 4580,
      "lick": 4581,
      "lifi": 4582,
      "liking": 4583,
      "livery": 4584,
      "likes": 4585,
      "lions": 4586,
      "lical": 4587,
      "limit": 4588,
      "liberal": 4589,
      "libels": 4590,
      "hired": 4591,
      "hilt": 4592,
      "hidden": 4593,
      "hills": 4594,
      "coy": 4595,
      "coin": 4596,
      "cost": 4597,
      "cool": 4598,
      "cote": 4599,
      "covery": 4600,
      "coign": 4601,
      "cosm": 4602,
      "coals": 4603,
      "cowards": 4604,
      "colic": 4605,
      "coining": 4606,
      "cockle": 4607,
      "costard": 4608,
      "cobbled": 4609,
      "coloured": 4610,
      "coxcom": 4611,
      "collected": 4612,
      "codemon": 4613,
      "withdraw": 4614,
      "sob": 4615,
      "sop": 4616,
      "sow": 4617,
      "soms": 4618,
      "sobs": 4619,
      "sowl": 4620,
      "soaring": 4621,
      "ared": 4622,
      "areth": 4623,
      "owing": 4624,
      "key": 4625,
      "keen": 4626,
      "keys": 4627,
      "keley": 4628,
      "goat": 4629,
      "goaded": 4630,
      "oler": 4631,
      "oldest": 4632,
      "olvish": 4633,
      "olympus": 4634,
      "rian": 4635,
      "rive": 4636,
      "rial": 4637,
      "rious": 4638,
      "rices": 4639,
      "ridi": 4640,
      "riche": 4641,
      "rions": 4642,
      "riages": 4643,
      "ridges": 4644,
      "rigorous": 4645,
      "pel": 4646,
      "peer": 4647,
      "peck": 4648,
      "pester": 4649,
      "peep": 4650,
      "peev": 4651,
      "pects": 4652,
      "pebble": 4653,
      "petency": 4654,
      "pearl": 4655,
      "aling": 4656,
      "alment": 4657,
      "alban": 4658,
      "alty": 4659,
      "altit": 4660,
      "altogether": 4661,
      "alogue": 4662,
      "mens": 4663,
      "menace": 4664,
      "ghtily": 4665,
      "moves": 4666,
      "moans": 4667,
      "movers": 4668,
      "moving": 4669,
      "motive": 4670,
      "moths": 4671,
      "molehi": 4672,
      "urging": 4673,
      "allel": 4674,
      "allaying": 4675,
      "allegi": 4676,
      "ung": 4677,
      "unk": 4678,
      "unn": 4679,
      "undo": 4680,
      "unsha": 4681,
      "unwill": 4682,
      "unlike": 4683,
      "unity": 4684,
      "unac": 4685,
      "unlook": 4686,
      "unchar": 4687,
      "unswe": 4688,
      "unbuck": 4689,
      "unach": 4690,
      "unval": 4691,
      "unpar": 4692,
      "unheard": 4693,
      "unfit": 4694,
      "unhearts": 4695,
      "ungrave": 4696,
      "unwit": 4697,
      "unholy": 4698,
      "unbar": 4699,
      "ungracious": 4700,
      "unviol": 4701,
      "unreason": 4702,
      "unhappy": 4703,
      "unwise": 4704,
      "unfill": 4705,
      "unclo": 4706,
      "unwept": 4707,
      "unshout": 4708,
      "unlawful": 4709,
      "unfin": 4710,
      "united": 4711,
      "ungovern": 4712,
      "unsal": 4713,
      "unsever": 4714,
      "unmerit": 4715,
      "unborn": 4716,
      "unwholesome": 4717,
      "unvul": 4718,
      "unrip": 4719,
      "unfold": 4720,
      "unquiet": 4721,
      "unsway": 4722,
      "unmoan": 4723,
      "unmanner": 4724,
      "unlikely": 4725,
      "unapt": 4726,
      "unburied": 4727,
      "unhappiness": 4728,
      "unfashion": 4729,
      "unroof": 4730,
      "unkindness": 4731,
      "unbuild": 4732,
      "unthankfulness": 4733,
      "unfortunate": 4734,
      "unburnt": 4735,
      "unelected": 4736,
      "unproperly": 4737,
      "unbruised": 4738,
      "unknit": 4739,
      "unmus": 4740,
      "unstable": 4741,
      "unsepar": 4742,
      "unchil": 4743,
      "buts": 4744,
      "butts": 4745,
      "butchers": 4746,
      "butchere": 4747,
      "buttock": 4748,
      "ading": 4749,
      "admi": 4750,
      "adversely": 4751,
      "advocate": 4752,
      "aducement": 4753,
      "adorn": 4754,
      "adrian": 4755,
      "lot": 4756,
      "lope": 4757,
      "loath": 4758,
      "lots": 4759,
      "locks": 4760,
      "loathed": 4761,
      "conn": 4762,
      "conver": 4763,
      "conge": 4764,
      "conta": 4765,
      "confid": 4766,
      "congre": 4767,
      "contri": 4768,
      "conies": 4769,
      "convers": 4770,
      "consist": 4771,
      "conspect": 4772,
      "convict": 4773,
      "contest": 4774,
      "construction": 4775,
      "convented": 4776,
      "conject": 4777,
      "constrains": 4778,
      "dove": 4779,
      "dote": 4780,
      "doers": 4781,
      "doves": 4782,
      "doings": 4783,
      "doms": 4784,
      "dogg": 4785,
      "domest": 4786,
      "dotant": 4787,
      "rag": 4788,
      "ram": 4789,
      "rack": 4790,
      "rakes": 4791,
      "raising": 4792,
      "raiment": 4793,
      "idly": 4794,
      "iders": 4795,
      "lying": 4796,
      "lycur": 4797,
      "male": 4798,
      "mail": 4799,
      "maint": 4800,
      "maims": 4801,
      "maker": 4802,
      "major": 4803,
      "makers": 4804,
      "mammock": 4805,
      "nept": 4806,
      "neted": 4807,
      "needed": 4808,
      "odvill": 4809,
      "sies": 4810,
      "sided": 4811,
      "sips": 4812,
      "sions": 4813,
      "size": 4814,
      "sithence": 4815,
      "sibly": 4816,
      "sibility": 4817,
      "manly": 4818,
      "mankind": 4819,
      "manhood": 4820,
      "mantled": 4821,
      "mangles": 4822,
      "corous": 4823,
      "cordi": 4824,
      "cormor": 4825,
      "cording": 4826,
      "corslet": 4827,
      "verif": 4828,
      "verous": 4829,
      "verity": 4830,
      "verily": 4831,
      "verbs": 4832,
      "ented": 4833,
      "enters": 4834,
      "entation": 4835,
      "entang": 4836,
      "enteous": 4837,
      "entire": 4838,
      "entered": 4839,
      "entrance": 4840,
      "nows": 4841,
      "oneous": 4842,
      "tire": 4843,
      "tied": 4844,
      "tial": 4845,
      "tick": 4846,
      "tives": 4847,
      "tiful": 4848,
      "tiply": 4849,
      "feed": 4850,
      "fester": 4851,
      "feet": 4852,
      "feats": 4853,
      "ferent": 4854,
      "fests": 4855,
      "feature": 4856,
      "feverous": 4857,
      "mary": 4858,
      "married": 4859,
      "marvel": 4860,
      "marriages": 4861,
      "sham": 4862,
      "shaken": 4863,
      "shaped": 4864,
      "sue": 4865,
      "sues": 4866,
      "suck": 4867,
      "surer": 4868,
      "sugar": 4869,
      "suckle": 4870,
      "sulph": 4871,
      "willing": 4872,
      "worm": 4873,
      "worser": 4874,
      "compla": 4875,
      "compa": 4876,
      "compl": 4877,
      "compos": 4878,
      "complex": 4879,
      "combine": 4880,
      "competency": 4881,
      "lag": 4882,
      "lap": 4883,
      "laps": 4884,
      "labours": 4885,
      "laughter": 4886,
      "laboured": 4887,
      "lamations": 4888,
      "blemish": 4889,
      "bleared": 4890,
      "cking": 4891,
      "hereto": 4892,
      "hereby": 4893,
      "heredit": 4894,
      "fob": 4895,
      "fog": 4896,
      "food": 4897,
      "foil": 4898,
      "footed": 4899,
      "fosset": 4900,
      "geon": 4901,
      "gear": 4902,
      "gems": 4903,
      "firm": 4904,
      "iful": 4905,
      "ifies": 4906,
      "ifferent": 4907,
      "tern": 4908,
      "tering": 4909,
      "terate": 4910,
      "whipp": 4911,
      "sterous": 4912,
      "sterday": 4913,
      "cited": 4914,
      "comest": 4915,
      "comely": 4916,
      "comeliness": 4917,
      "ampt": 4918,
      "amorous": 4919,
      "ambling": 4920,
      "shent": 4921,
      "shine": 4922,
      "shru": 4923,
      "shop": 4924,
      "shot": 4925,
      "shunless": 4926,
      "sharing": 4927,
      "shunning": 4928,
      "sharp": 4929,
      "shunn": 4930,
      "ains": 4931,
      "ainted": 4932,
      "upper": 4933,
      "uptuous": 4934,
      "warning": 4935,
      "ounce": 4936,
      "ounced": 4937,
      "pother": 4938,
      "potch": 4939,
      "poets": 4940,
      "posterity": 4941,
      "potency": 4942,
      "pocket": 4943,
      "pomfre": 4944,
      "posterous": 4945,
      "shallow": 4946,
      "glories": 4947,
      "glasses": 4948,
      "glowing": 4949,
      "fails": 4950,
      "factions": 4951,
      "fairer": 4952,
      "cann": 4953,
      "cant": 4954,
      "canni": 4955,
      "canker": 4956,
      "serpent": 4957,
      "teth": 4958,
      "teen": 4959,
      "teban": 4960,
      "terest": 4961,
      "text": 4962,
      "teaches": 4963,
      "hob": 4964,
      "hole": 4965,
      "hosp": 4966,
      "homi": 4967,
      "hollow": 4968,
      "hopes": 4969,
      "hoarded": 4970,
      "holloa": 4971,
      "prud": 4972,
      "prating": 4973,
      "pratt": 4974,
      "proudest": 4975,
      "prank": 4976,
      "trans": 4977,
      "triton": 4978,
      "trunk": 4979,
      "traducement": 4980,
      "atest": 4981,
      "whene": 4982,
      "whenever": 4983,
      "brat": 4984,
      "brings": 4985,
      "brats": 4986,
      "brunt": 4987,
      "brutish": 4988,
      "eting": 4989,
      "muck": 4990,
      "muster": 4991,
      "mules": 4992,
      "mumm": 4993,
      "mulled": 4994,
      "whoop": 4995,
      "pleasers": 4996,
      "pease": 4997,
      "peachments": 4998,
      "case": 4999
    },
    "merges": [
      [
        "t",
        "h"
      ],
      [
        "o",
        "u"
      ],
      [
        "th",
        "e"
      ],
      [
        "a",
        "n"
      ],
      [
        "i",
        "n"
      ],
      [
        "r",
        "e"
      ],
      [
        "e",
        "n"
      ],
      [
        "e",
        "r"
      ],
      [
        "o",
        "r"
      ],
      [
        "a",
        "t"
      ],
      [
        "s",
        "t"
      ],
      [
        "o",
        "n"
      ],
      [
        "i",
        "s"
      ],
      [
        "y",
        "ou"
      ],
      [
        "u",
        "s"
      ],
      [
        "a",
        "r"
      ],
      [
        "l",
        "l"
      ],
      [
        "t",
        "o"
      ],
      [
        "an",
        "d"
      ],
      [
        "h",
        "e"
      ],
      [
        "m",
        "e"
      ],
      [
        "n",
        "o"
      ],
      [
        "h",
        "a"
      ],
      [
        "v",
        "e"
      ],
      [
        "i",
        "t"
      ],
      [
        "l",
        "e"
      ],
      [
        "s",
        "e"
      ],
      [
        "b",
        "e"
      ],
      [
        "c",
        "e"
      ],
      [
        "o",
        "f"
      ],
      [
        "w",
        "h"
      ],
      [
        "in",
        "g"
      ],
      [
        "w",
        "i"
      ],
      [
        "w",
        "e"
      ],
      [
        "d",
        "e"
      ],
      [
        "i",
        "us"
      ],
      [
        "i",
        "r"
      ],
      [
        "a",
        "s"
      ],
      [
        "r",
        "o"
      ],
      [
        "c",
        "h"
      ],
      [
        "m",
        "y"
      ],
      [
        "th",
        "at"
      ],
      [
        "l",
        "d"
      ],
      [
        "f",
        "or"
      ],
      [
        "u",
        "t"
      ],
      [
        "a",
        "y"
      ],
      [
        "no",
        "t"
      ],
      [
        "e",
        "d"
      ],
      [
        "e",
        "s"
      ],
      [
        "l",
        "i"
      ],
      [
        "h",
        "i"
      ],
      [
        "you",
        "r"
      ],
      [
        "c",
        "o"
      ],
      [
        "wi",
        "th"
      ],
      [
        "s",
        "o"
      ],
      [
        "a",
        "re"
      ],
      [
        "ou",
        "r"
      ],
      [
        "o",
        "w"
      ],
      [
        "k",
        "e"
      ],
      [
        "g",
        "o"
      ],
      [
        "ha",
        "ve"
      ],
      [
        "h",
        "is"
      ],
      [
        "hi",
        "m"
      ],
      [
        "o",
        "l"
      ],
      [
        "r",
        "i"
      ],
      [
        "p",
        "e"
      ],
      [
        "a",
        "l"
      ],
      [
        "m",
        "en"
      ],
      [
        "g",
        "h"
      ],
      [
        "m",
        "o"
      ],
      [
        "u",
        "r"
      ],
      [
        "the",
        "r"
      ],
      [
        "a",
        "ll"
      ],
      [
        "u",
        "n"
      ],
      [
        "b",
        "ut"
      ],
      [
        "a",
        "d"
      ],
      [
        "l",
        "o"
      ],
      [
        "c",
        "on"
      ],
      [
        "d",
        "o"
      ],
      [
        "r",
        "a"
      ],
      [
        "i",
        "d"
      ],
      [
        "th",
        "ou"
      ],
      [
        "l",
        "y"
      ],
      [
        "m",
        "a"
      ],
      [
        "th",
        "is"
      ],
      [
        "ou",
        "ld"
      ],
      [
        "n",
        "e"
      ],
      [
        "o",
        "d"
      ],
      [
        "s",
        "i"
      ],
      [
        "m",
        "an"
      ],
      [
        "wh",
        "at"
      ],
      [
        "c",
        "or"
      ],
      [
        "v",
        "er"
      ],
      [
        "en",
        "t"
      ],
      [
        "no",
        "w"
      ],
      [
        "on",
        "e"
      ],
      [
        "th",
        "y"
      ],
      [
        "t",
        "i"
      ],
      [
        "f",
        "e"
      ],
      [
        "m",
        "ar"
      ],
      [
        "s",
        "ha"
      ],
      [
        "gh",
        "t"
      ],
      [
        "s",
        "u"
      ],
      [
        "in",
        "ius"
      ],
      [
        "b",
        "y"
      ],
      [
        "d",
        "s"
      ],
      [
        "wi",
        "ll"
      ],
      [
        "w",
        "or"
      ],
      [
        "cor",
        "i"
      ],
      [
        "co",
        "m"
      ],
      [
        "l",
        "a"
      ],
      [
        "b",
        "le"
      ],
      [
        "u",
        "e"
      ],
      [
        "c",
        "k"
      ],
      [
        "he",
        "re"
      ],
      [
        "f",
        "o"
      ],
      [
        "g",
        "e"
      ],
      [
        "an",
        "us"
      ],
      [
        "ol",
        "anus"
      ],
      [
        "cori",
        "olanus"
      ],
      [
        "f",
        "ir"
      ],
      [
        "i",
        "f"
      ],
      [
        "t",
        "er"
      ],
      [
        "en",
        "ius"
      ],
      [
        "men",
        "enius"
      ],
      [
        "wh",
        "i"
      ],
      [
        "fir",
        "st"
      ],
      [
        "st",
        "er"
      ],
      [
        "ar",
        "t"
      ],
      [
        "c",
        "it"
      ],
      [
        "s",
        "s"
      ],
      [
        "the",
        "y"
      ],
      [
        "co",
        "me"
      ],
      [
        "a",
        "m"
      ],
      [
        "s",
        "h"
      ],
      [
        "the",
        "m"
      ],
      [
        "a",
        "in"
      ],
      [
        "u",
        "p"
      ],
      [
        "w",
        "ar"
      ],
      [
        "ou",
        "n"
      ],
      [
        "p",
        "o"
      ],
      [
        "th",
        "an"
      ],
      [
        "sha",
        "ll"
      ],
      [
        "w",
        "as"
      ],
      [
        "the",
        "ir"
      ],
      [
        "g",
        "l"
      ],
      [
        "f",
        "a"
      ],
      [
        "c",
        "an"
      ],
      [
        "s",
        "er"
      ],
      [
        "t",
        "e"
      ],
      [
        "h",
        "o"
      ],
      [
        "the",
        "e"
      ],
      [
        "whi",
        "ch"
      ],
      [
        "p",
        "r"
      ],
      [
        "t",
        "r"
      ],
      [
        "at",
        "e"
      ],
      [
        "wh",
        "en"
      ],
      [
        "b",
        "r"
      ],
      [
        "e",
        "t"
      ],
      [
        "m",
        "u"
      ],
      [
        "wh",
        "o"
      ],
      [
        "p",
        "le"
      ],
      [
        "w",
        "ould"
      ],
      [
        "pe",
        "a"
      ],
      [
        "we",
        "ll"
      ],
      [
        "c",
        "a"
      ],
      [
        "ou",
        "t"
      ],
      [
        "se",
        "l"
      ],
      [
        "go",
        "od"
      ],
      [
        "i",
        "z"
      ],
      [
        "ou",
        "s"
      ],
      [
        "u",
        "m"
      ],
      [
        "si",
        "c"
      ],
      [
        "mar",
        "c"
      ],
      [
        "le",
        "t"
      ],
      [
        "cit",
        "iz"
      ],
      [
        "marc",
        "ius"
      ],
      [
        "citiz",
        "en"
      ],
      [
        "a",
        "u"
      ],
      [
        "g",
        "i"
      ],
      [
        "ou",
        "ce"
      ],
      [
        "gl",
        "ouce"
      ],
      [
        "sic",
        "inius"
      ],
      [
        "glouce",
        "ster"
      ],
      [
        "mo",
        "re"
      ],
      [
        "con",
        "d"
      ],
      [
        "-",
        "-"
      ],
      [
        "we",
        "re"
      ],
      [
        "ro",
        "m"
      ],
      [
        "i",
        "on"
      ],
      [
        "the",
        "re"
      ],
      [
        "t",
        "a"
      ],
      [
        "s",
        "en"
      ],
      [
        "v",
        "en"
      ],
      [
        "the",
        "n"
      ],
      [
        "c",
        "t"
      ],
      [
        "f",
        "i"
      ],
      [
        "a",
        "g"
      ],
      [
        "se",
        "e"
      ],
      [
        "l",
        "or"
      ],
      [
        "fo",
        "re"
      ],
      [
        "k",
        "ing"
      ],
      [
        "he",
        "ar"
      ],
      [
        "ha",
        "d"
      ],
      [
        "li",
        "ke"
      ],
      [
        "f",
        "rom"
      ],
      [
        "p",
        "re"
      ],
      [
        "i",
        "l"
      ],
      [
        "k",
        "now"
      ],
      [
        "b",
        "o"
      ],
      [
        "q",
        "ue"
      ],
      [
        "s",
        "a"
      ],
      [
        "v",
        "ol"
      ],
      [
        "in",
        "e"
      ],
      [
        "se",
        "cond"
      ],
      [
        "s",
        "ay"
      ],
      [
        "er",
        "s"
      ],
      [
        "d",
        "id"
      ],
      [
        "an",
        "t"
      ],
      [
        "s",
        "ir"
      ],
      [
        "lo",
        "ve"
      ],
      [
        "on",
        "g"
      ],
      [
        "ut",
        "us"
      ],
      [
        "u",
        "l"
      ],
      [
        "c",
        "l"
      ],
      [
        "br",
        "utus"
      ],
      [
        "ce",
        "s"
      ],
      [
        "w",
        "here"
      ],
      [
        "is",
        "h"
      ],
      [
        "ro",
        "me"
      ],
      [
        "n",
        "i"
      ],
      [
        "ow",
        "n"
      ],
      [
        "no",
        "ble"
      ],
      [
        "up",
        "on"
      ],
      [
        "sel",
        "f"
      ],
      [
        "h",
        "ow"
      ],
      [
        "en",
        "d"
      ],
      [
        "ser",
        "v"
      ],
      [
        "d",
        "i"
      ],
      [
        "com",
        "inius"
      ],
      [
        "f",
        "id"
      ],
      [
        "ag",
        "ain"
      ],
      [
        "h",
        "er"
      ],
      [
        "in",
        "d"
      ],
      [
        "es",
        "s"
      ],
      [
        "ad",
        "y"
      ],
      [
        "ma",
        "ke"
      ],
      [
        "lor",
        "d"
      ],
      [
        "a",
        "th"
      ],
      [
        "s",
        "p"
      ],
      [
        "w",
        "ay"
      ],
      [
        "mu",
        "st"
      ],
      [
        "que",
        "en"
      ],
      [
        "fid",
        "ius"
      ],
      [
        "au",
        "fidius"
      ],
      [
        "c",
        "i"
      ],
      [
        "o",
        "ple"
      ],
      [
        "p",
        "ro"
      ],
      [
        "pe",
        "ople"
      ],
      [
        "e",
        "p"
      ],
      [
        "m",
        "ur"
      ],
      [
        "ve",
        "s"
      ],
      [
        "ro",
        "w"
      ],
      [
        "mo",
        "st"
      ],
      [
        "c",
        "oun"
      ],
      [
        "s",
        "pea"
      ],
      [
        "u",
        "re"
      ],
      [
        "war",
        "d"
      ],
      [
        "spea",
        "k"
      ],
      [
        "g",
        "re"
      ],
      [
        "ha",
        "th"
      ],
      [
        "sh",
        "ould"
      ],
      [
        "d",
        "is"
      ],
      [
        "m",
        "i"
      ],
      [
        "y",
        "et"
      ],
      [
        "re",
        "r"
      ],
      [
        "n",
        "a"
      ],
      [
        "at",
        "or"
      ],
      [
        "f",
        "ri"
      ],
      [
        "so",
        "me"
      ],
      [
        "are",
        "n"
      ],
      [
        "g",
        "ra"
      ],
      [
        "m",
        "ay"
      ],
      [
        "v",
        "o"
      ],
      [
        "it",
        "y"
      ],
      [
        "ti",
        "me"
      ],
      [
        "c",
        "he"
      ],
      [
        "in",
        "k"
      ],
      [
        "en",
        "ce"
      ],
      [
        "go",
        "d"
      ],
      [
        "i",
        "ll"
      ],
      [
        "r",
        "y"
      ],
      [
        "t",
        "is"
      ],
      [
        "de",
        "rer"
      ],
      [
        "men",
        "t"
      ],
      [
        "cl",
        "aren"
      ],
      [
        "mur",
        "derer"
      ],
      [
        "claren",
        "ce"
      ],
      [
        "th",
        "ing"
      ],
      [
        "ma",
        "de"
      ],
      [
        "can",
        "not"
      ],
      [
        "us",
        "e"
      ],
      [
        "he",
        "art"
      ],
      [
        "wh",
        "y"
      ],
      [
        "e",
        "x"
      ],
      [
        "l",
        "ady"
      ],
      [
        "p",
        "er"
      ],
      [
        "w",
        "o"
      ],
      [
        "de",
        "ath"
      ],
      [
        "a",
        "b"
      ],
      [
        "a",
        "c"
      ],
      [
        "o",
        "k"
      ],
      [
        "n",
        "or"
      ],
      [
        "ar",
        "s"
      ],
      [
        "le",
        "ss"
      ],
      [
        "gi",
        "ve"
      ],
      [
        "ta",
        "ke"
      ],
      [
        "sen",
        "ator"
      ],
      [
        "t",
        "ri"
      ],
      [
        "u",
        "ck"
      ],
      [
        "th",
        "ink"
      ],
      [
        "pr",
        "ay"
      ],
      [
        "um",
        "ni"
      ],
      [
        "vol",
        "umni"
      ],
      [
        "volumni",
        "a"
      ],
      [
        "e",
        "ver"
      ],
      [
        "m",
        "b"
      ],
      [
        "o",
        "ther"
      ],
      [
        "q",
        "u"
      ],
      [
        "the",
        "se"
      ],
      [
        "an",
        "s"
      ],
      [
        "be",
        "fore"
      ],
      [
        "lo",
        "od"
      ],
      [
        "te",
        "ll"
      ],
      [
        "serv",
        "ing"
      ],
      [
        "on",
        "our"
      ],
      [
        "mo",
        "ther"
      ],
      [
        "serving",
        "man"
      ],
      [
        "a",
        "p"
      ],
      [
        "d",
        "u"
      ],
      [
        "d",
        "er"
      ],
      [
        "g",
        "er"
      ],
      [
        "ha",
        "st"
      ],
      [
        "pea",
        "ce"
      ],
      [
        "b",
        "lood"
      ],
      [
        "ar",
        "d"
      ],
      [
        "ll",
        "ow"
      ],
      [
        "d",
        "one"
      ],
      [
        "p",
        "la"
      ],
      [
        "s",
        "on"
      ],
      [
        "en",
        "ds"
      ],
      [
        "to",
        "o"
      ],
      [
        "ti",
        "on"
      ],
      [
        "in",
        "ce"
      ],
      [
        "re",
        "n"
      ],
      [
        "de",
        "d"
      ],
      [
        "again",
        "st"
      ],
      [
        "s",
        "he"
      ],
      [
        "st",
        "r"
      ],
      [
        "na",
        "me"
      ],
      [
        "vo",
        "i"
      ],
      [
        "b",
        "re"
      ],
      [
        "f",
        "ul"
      ],
      [
        "h",
        "onour"
      ],
      [
        "m",
        "ine"
      ],
      [
        "y",
        "e"
      ],
      [
        "th",
        "ir"
      ],
      [
        "an",
        "ce"
      ],
      [
        "ur",
        "n"
      ],
      [
        "ne",
        "w"
      ],
      [
        "gre",
        "at"
      ],
      [
        "b",
        "ro"
      ],
      [
        "c",
        "ur"
      ],
      [
        "g",
        "r"
      ],
      [
        "s",
        "ent"
      ],
      [
        "is",
        "e"
      ],
      [
        "ne",
        "ver"
      ],
      [
        "su",
        "ch"
      ],
      [
        "com",
        "m"
      ],
      [
        "thir",
        "d"
      ],
      [
        "b",
        "a"
      ],
      [
        "i",
        "es"
      ],
      [
        "p",
        "t"
      ],
      [
        "a",
        "f"
      ],
      [
        "v",
        "i"
      ],
      [
        "v",
        "ir"
      ],
      [
        "at",
        "ion"
      ],
      [
        "ve",
        "d"
      ],
      [
        "p",
        "ow"
      ],
      [
        "re",
        "d"
      ],
      [
        "de",
        "ed"
      ],
      [
        "go",
        "ds"
      ],
      [
        "lo",
        "ok"
      ],
      [
        "e",
        "l"
      ],
      [
        "p",
        "at"
      ],
      [
        "an",
        "ne"
      ],
      [
        "st",
        "and"
      ],
      [
        "ed",
        "ward"
      ],
      [
        "n",
        "ess"
      ],
      [
        "o",
        "se"
      ],
      [
        "se",
        "t"
      ],
      [
        "ch",
        "i"
      ],
      [
        "tr",
        "y"
      ],
      [
        "d",
        "ay"
      ],
      [
        "p",
        "ri"
      ],
      [
        "p",
        "art"
      ],
      [
        "y",
        "es"
      ],
      [
        "or",
        "t"
      ],
      [
        "fri",
        "ends"
      ],
      [
        ",",
        "--"
      ],
      [
        "h",
        "and"
      ],
      [
        "j",
        "o"
      ],
      [
        "st",
        "o"
      ],
      [
        "b",
        "un"
      ],
      [
        "y",
        "or"
      ],
      [
        "an",
        "y"
      ],
      [
        "be",
        "t"
      ],
      [
        "be",
        "en"
      ],
      [
        "be",
        "ar"
      ],
      [
        "wor",
        "d"
      ],
      [
        "coun",
        "try"
      ],
      [
        "pow",
        "er"
      ],
      [
        "yor",
        "k"
      ],
      [
        "c",
        "ould"
      ],
      [
        "g",
        "en"
      ],
      [
        "p",
        "a"
      ],
      [
        "t",
        "le"
      ],
      [
        "u",
        "ll"
      ],
      [
        "wor",
        "ld"
      ],
      [
        "cit",
        "y"
      ],
      [
        "tr",
        "ue"
      ],
      [
        "b",
        "ra"
      ],
      [
        "e",
        "st"
      ],
      [
        "l",
        "t"
      ],
      [
        "p",
        "i"
      ],
      [
        "ou",
        "l"
      ],
      [
        "en",
        "e"
      ],
      [
        "he",
        "a"
      ],
      [
        "be",
        "ing"
      ],
      [
        "ch",
        "ar"
      ],
      [
        "ver",
        "s"
      ],
      [
        "bo",
        "th"
      ],
      [
        "vol",
        "s"
      ],
      [
        "tri",
        "bun"
      ],
      [
        "a",
        "k"
      ],
      [
        "a",
        "ve"
      ],
      [
        "b",
        "l"
      ],
      [
        "d",
        "own"
      ],
      [
        "th",
        "us"
      ],
      [
        "ing",
        "s"
      ],
      [
        "con",
        "su"
      ],
      [
        "thou",
        "gh"
      ],
      [
        "sh",
        "ow"
      ],
      [
        "oun",
        "d"
      ],
      [
        "po",
        "or"
      ],
      [
        "ho",
        "me"
      ],
      [
        "mu",
        "ch"
      ],
      [
        "c",
        "all"
      ],
      [
        "th",
        "ose"
      ],
      [
        "t",
        "urn"
      ],
      [
        "er",
        "al"
      ],
      [
        "ha",
        "s"
      ],
      [
        "ro",
        "man"
      ],
      [
        "ca",
        "use"
      ],
      [
        "voi",
        "ces"
      ],
      [
        "a",
        "be"
      ],
      [
        "e",
        "li"
      ],
      [
        "e",
        "yes"
      ],
      [
        "m",
        "er"
      ],
      [
        "p",
        "ut"
      ],
      [
        "er",
        "t"
      ],
      [
        "at",
        "ter"
      ],
      [
        "ar",
        "m"
      ],
      [
        "fe",
        "ar"
      ],
      [
        "bro",
        "ther"
      ],
      [
        "gen",
        "eral"
      ],
      [
        "consu",
        "l"
      ],
      [
        "n",
        "at"
      ],
      [
        "t",
        "re"
      ],
      [
        "z",
        "abe"
      ],
      [
        "li",
        "e"
      ],
      [
        "new",
        "s"
      ],
      [
        "tribun",
        "es"
      ],
      [
        "eli",
        "zabe"
      ],
      [
        "elizabe",
        "th"
      ],
      [
        "i",
        "m"
      ],
      [
        "k",
        "en"
      ],
      [
        "s",
        "c"
      ],
      [
        "s",
        "we"
      ],
      [
        "t",
        "s"
      ],
      [
        "of",
        "f"
      ],
      [
        "wi",
        "fe"
      ],
      [
        "we",
        "l"
      ],
      [
        "as",
        "s"
      ],
      [
        "thou",
        "ght"
      ],
      [
        "ho",
        "ld"
      ],
      [
        "there",
        "fore"
      ],
      [
        "chi",
        "ld"
      ],
      [
        "a",
        "st"
      ],
      [
        "f",
        "l"
      ],
      [
        "g",
        "ent"
      ],
      [
        "p",
        "l"
      ],
      [
        "be",
        "g"
      ],
      [
        "ver",
        "y"
      ],
      [
        "fa",
        "ther"
      ],
      [
        "a",
        "way"
      ],
      [
        "b",
        "uck"
      ],
      [
        "g",
        "u"
      ],
      [
        "h",
        "ate"
      ],
      [
        "n",
        "ay"
      ],
      [
        "t",
        "en"
      ],
      [
        "for",
        "t"
      ],
      [
        "li",
        "ve"
      ],
      [
        "ur",
        "y"
      ],
      [
        "gra",
        "ce"
      ],
      [
        "cur",
        "se"
      ],
      [
        "b",
        "and"
      ],
      [
        "i",
        "g"
      ],
      [
        "i",
        "ther"
      ],
      [
        "k",
        "es"
      ],
      [
        "m",
        "ad"
      ],
      [
        "s",
        "oul"
      ],
      [
        "ou",
        "se"
      ],
      [
        "he",
        "l"
      ],
      [
        "ha",
        "m"
      ],
      [
        "le",
        "s"
      ],
      [
        "ing",
        "ham"
      ],
      [
        "man",
        "y"
      ],
      [
        "wor",
        "thy"
      ],
      [
        "buck",
        "ingham"
      ],
      [
        "a",
        "se"
      ],
      [
        "b",
        "an"
      ],
      [
        "d",
        "en"
      ],
      [
        "h",
        "ouse"
      ],
      [
        "l",
        "art"
      ],
      [
        "t",
        "ong"
      ],
      [
        "ou",
        "ght"
      ],
      [
        "re",
        "p"
      ],
      [
        "at",
        "es"
      ],
      [
        "it",
        "ion"
      ],
      [
        "de",
        "ar"
      ],
      [
        "ri",
        "vers"
      ],
      [
        "fa",
        "ir"
      ],
      [
        "tr",
        "u"
      ],
      [
        "hea",
        "ven"
      ],
      [
        "lart",
        "ius"
      ],
      [
        "a",
        "ch"
      ],
      [
        "f",
        "ull"
      ],
      [
        "g",
        "are"
      ],
      [
        "h",
        "us"
      ],
      [
        "i",
        "ce"
      ],
      [
        "k",
        "s"
      ],
      [
        "k",
        "ind"
      ],
      [
        "p",
        "s"
      ],
      [
        "r",
        "u"
      ],
      [
        "s",
        "ince"
      ],
      [
        "w",
        "er"
      ],
      [
        "ou",
        "gh"
      ],
      [
        "an",
        "g"
      ],
      [
        "le",
        "ave"
      ],
      [
        "de",
        "ser"
      ],
      [
        "fe",
        "llow"
      ],
      [
        "mar",
        "gare"
      ],
      [
        "sel",
        "ves"
      ],
      [
        "gent",
        "le"
      ],
      [
        "mad",
        "am"
      ],
      [
        "margare",
        "t"
      ],
      [
        "c",
        "tion"
      ],
      [
        "e",
        "ld"
      ],
      [
        "l",
        "it"
      ],
      [
        "w",
        "r"
      ],
      [
        "in",
        "s"
      ],
      [
        "de",
        "ad"
      ],
      [
        "so",
        "ld"
      ],
      [
        "un",
        "to"
      ],
      [
        "pla",
        "ce"
      ],
      [
        "bet",
        "ter"
      ],
      [
        "hus",
        "band"
      ],
      [
        "a",
        "ble"
      ],
      [
        "e",
        "ven"
      ],
      [
        "j",
        "u"
      ],
      [
        "s",
        "la"
      ],
      [
        "v",
        "ing"
      ],
      [
        "v",
        "al"
      ],
      [
        "ou",
        "d"
      ],
      [
        "in",
        "t"
      ],
      [
        "st",
        "ate"
      ],
      [
        "st",
        "ill"
      ],
      [
        "for",
        "th"
      ],
      [
        "li",
        "a"
      ],
      [
        "ra",
        "ther"
      ],
      [
        "citizen",
        "s"
      ],
      [
        "gi",
        "lia"
      ],
      [
        "comm",
        "on"
      ],
      [
        "af",
        "ter"
      ],
      [
        "vir",
        "gilia"
      ],
      [
        "wel",
        "come"
      ],
      [
        "sold",
        "i"
      ],
      [
        "e",
        "m"
      ],
      [
        "g",
        "one"
      ],
      [
        "l",
        "ay"
      ],
      [
        "o",
        "p"
      ],
      [
        "p",
        "p"
      ],
      [
        "re",
        "e"
      ],
      [
        "my",
        "self"
      ],
      [
        "who",
        "se"
      ],
      [
        "bo",
        "y"
      ],
      [
        "row",
        "n"
      ],
      [
        "k",
        "ill"
      ],
      [
        "l",
        "ong"
      ],
      [
        "p",
        "ar"
      ],
      [
        "w",
        "a"
      ],
      [
        "w",
        "oun"
      ],
      [
        "en",
        "ger"
      ],
      [
        "me",
        "ss"
      ],
      [
        "of",
        "fi"
      ],
      [
        "ke",
        "ep"
      ],
      [
        "un",
        "der"
      ],
      [
        "fo",
        "llow"
      ],
      [
        "pr",
        "ince"
      ],
      [
        "pre",
        "sent"
      ],
      [
        "hast",
        "ings"
      ],
      [
        "jo",
        "y"
      ],
      [
        "lit",
        "tle"
      ],
      [
        "mess",
        "enger"
      ],
      [
        "b",
        "od"
      ],
      [
        "b",
        "ury"
      ],
      [
        "c",
        "re"
      ],
      [
        "f",
        "are"
      ],
      [
        "o",
        "ld"
      ],
      [
        "t",
        "y"
      ],
      [
        "t",
        "ed"
      ],
      [
        "re",
        "ven"
      ],
      [
        "st",
        "ay"
      ],
      [
        "is",
        "on"
      ],
      [
        "li",
        "fe"
      ],
      [
        "con",
        "t"
      ],
      [
        "cor",
        "n"
      ],
      [
        "sha",
        "me"
      ],
      [
        "wor",
        "ds"
      ],
      [
        "ho",
        "pe"
      ],
      [
        "sa",
        "id"
      ],
      [
        "mi",
        "ght"
      ],
      [
        "c",
        "y"
      ],
      [
        "d",
        "ou"
      ],
      [
        "e",
        "ar"
      ],
      [
        "s",
        "po"
      ],
      [
        "s",
        "word"
      ],
      [
        "t",
        "wo"
      ],
      [
        "w",
        "n"
      ],
      [
        "w",
        "ish"
      ],
      [
        "an",
        "ger"
      ],
      [
        "on",
        "s"
      ],
      [
        "it",
        "s"
      ],
      [
        "le",
        "d"
      ],
      [
        "him",
        "self"
      ],
      [
        "do",
        "th"
      ],
      [
        "te",
        "m"
      ],
      [
        "who",
        "m"
      ],
      [
        "lor",
        "ds"
      ],
      [
        "ni",
        "ght"
      ],
      [
        "che",
        "ss"
      ],
      [
        "du",
        "chess"
      ],
      [
        "ba",
        "ck"
      ],
      [
        "ert",
        "ain"
      ],
      [
        "nat",
        "ure"
      ],
      [
        "hel",
        "p"
      ],
      [
        ".",
        "'"
      ],
      [
        "d",
        "re"
      ],
      [
        "f",
        "f"
      ],
      [
        "m",
        "is"
      ],
      [
        "p",
        "ass"
      ],
      [
        "s",
        "hi"
      ],
      [
        "s",
        "pe"
      ],
      [
        "v",
        "a"
      ],
      [
        "w",
        "on"
      ],
      [
        "re",
        "st"
      ],
      [
        "st",
        "ri"
      ],
      [
        "be",
        "see"
      ],
      [
        "ce",
        "i"
      ],
      [
        "de",
        "v"
      ],
      [
        "de",
        "li"
      ],
      [
        "lo",
        "se"
      ],
      [
        "ti",
        "ll"
      ],
      [
        "ge",
        "t"
      ],
      [
        "hear",
        "d"
      ],
      [
        "sp",
        "ir"
      ],
      [
        "mb",
        "er"
      ],
      [
        "ans",
        "wer"
      ],
      [
        "ban",
        "ish"
      ],
      [
        "soldi",
        "er"
      ],
      [
        "besee",
        "ch"
      ],
      [
        "b",
        "u"
      ],
      [
        "f",
        "all"
      ],
      [
        "g",
        "ar"
      ],
      [
        "g",
        "ed"
      ],
      [
        "p",
        "ur"
      ],
      [
        "t",
        "ra"
      ],
      [
        "th",
        "ine"
      ],
      [
        "an",
        "ge"
      ],
      [
        "in",
        "to"
      ],
      [
        "in",
        "ess"
      ],
      [
        "or",
        "row"
      ],
      [
        "st",
        "re"
      ],
      [
        "us",
        "ed"
      ],
      [
        "our",
        "s"
      ],
      [
        "ma",
        "ster"
      ],
      [
        "war",
        "s"
      ],
      [
        "pr",
        "oud"
      ],
      [
        "di",
        "e"
      ],
      [
        "tong",
        "ue"
      ],
      [
        "b",
        "t"
      ],
      [
        "c",
        "ut"
      ],
      [
        "e",
        "f"
      ],
      [
        "e",
        "re"
      ],
      [
        "f",
        "al"
      ],
      [
        "h",
        "or"
      ],
      [
        "h",
        "um"
      ],
      [
        "i",
        "le"
      ],
      [
        "k",
        "ne"
      ],
      [
        "m",
        "atter"
      ],
      [
        "on",
        "ce"
      ],
      [
        "on",
        "ly"
      ],
      [
        "it",
        "or"
      ],
      [
        "be",
        "st"
      ],
      [
        "com",
        "p"
      ],
      [
        "la",
        "w"
      ],
      [
        "po",
        "se"
      ],
      [
        "ca",
        "me"
      ],
      [
        "ci",
        "ous"
      ],
      [
        "ment",
        "s"
      ],
      [
        "ab",
        "out"
      ],
      [
        "gr",
        "ant"
      ],
      [
        "swe",
        "et"
      ],
      [
        "b",
        "la"
      ],
      [
        "c",
        "our"
      ],
      [
        "c",
        "ra"
      ],
      [
        "d",
        "r"
      ],
      [
        "e",
        "ars"
      ],
      [
        "h",
        "ar"
      ],
      [
        "i",
        "a"
      ],
      [
        "o",
        "t"
      ],
      [
        "r",
        "an"
      ],
      [
        "s",
        "le"
      ],
      [
        "t",
        "it"
      ],
      [
        "t",
        "was"
      ],
      [
        "t",
        "end"
      ],
      [
        "v",
        "ent"
      ],
      [
        "ou",
        "ch"
      ],
      [
        "re",
        "ady"
      ],
      [
        "to",
        "ge"
      ],
      [
        "no",
        "thing"
      ],
      [
        "ha",
        "l"
      ],
      [
        "we",
        "ep"
      ],
      [
        "de",
        "si"
      ],
      [
        "ro",
        "y"
      ],
      [
        "your",
        "s"
      ],
      [
        "ri",
        "ght"
      ],
      [
        "do",
        "es"
      ],
      [
        "fo",
        "ol"
      ],
      [
        "come",
        "s"
      ],
      [
        "po",
        "s"
      ],
      [
        "fri",
        "end"
      ],
      [
        "ac",
        "c"
      ],
      [
        "qu",
        "i"
      ],
      [
        "du",
        "ke"
      ],
      [
        "ene",
        "my"
      ],
      [
        "vols",
        "ces"
      ],
      [
        "rep",
        "ort"
      ],
      [
        "woun",
        "ds"
      ],
      [
        "bod",
        "y"
      ],
      [
        ",",
        "'"
      ],
      [
        "c",
        "ry"
      ],
      [
        "f",
        "t"
      ],
      [
        "f",
        "it"
      ],
      [
        "f",
        "ur"
      ],
      [
        "f",
        "ind"
      ],
      [
        "h",
        "at"
      ],
      [
        "h",
        "ol"
      ],
      [
        "m",
        "in"
      ],
      [
        "m",
        "on"
      ],
      [
        "o",
        "li"
      ],
      [
        "in",
        "deed"
      ],
      [
        "re",
        "me"
      ],
      [
        "er",
        "ia"
      ],
      [
        "or",
        "y"
      ],
      [
        "to",
        "l"
      ],
      [
        "he",
        "ad"
      ],
      [
        "li",
        "es"
      ],
      [
        "so",
        "l"
      ],
      [
        "al",
        "k"
      ],
      [
        "fe",
        "ct"
      ],
      [
        "cori",
        "oli"
      ],
      [
        "whi",
        "le"
      ],
      [
        "ca",
        "ius"
      ],
      [
        "au",
        "ght"
      ],
      [
        "que",
        "st"
      ],
      [
        "vir",
        "t"
      ],
      [
        "el",
        "se"
      ],
      [
        "pat",
        "i"
      ],
      [
        "val",
        "eria"
      ],
      [
        "fare",
        "well"
      ],
      [
        "dou",
        "bt"
      ],
      [
        "toge",
        "ther"
      ],
      [
        "hal",
        "f"
      ],
      [
        "fur",
        "ther"
      ],
      [
        "b",
        "us"
      ],
      [
        "b",
        "id"
      ],
      [
        "c",
        "ar"
      ],
      [
        "c",
        "ha"
      ],
      [
        "c",
        "le"
      ],
      [
        "c",
        "are"
      ],
      [
        "c",
        "al"
      ],
      [
        "d",
        "anger"
      ],
      [
        "g",
        "ri"
      ],
      [
        "g",
        "ates"
      ],
      [
        "i",
        "ght"
      ],
      [
        "j",
        "e"
      ],
      [
        "l",
        "and"
      ],
      [
        "l",
        "ad"
      ],
      [
        "p",
        "ers"
      ],
      [
        "p",
        "ard"
      ],
      [
        "an",
        "other"
      ],
      [
        "in",
        "ter"
      ],
      [
        "st",
        "e"
      ],
      [
        "me",
        "et"
      ],
      [
        "it",
        "e"
      ],
      [
        "be",
        "at"
      ],
      [
        "ut",
        "y"
      ],
      [
        "al",
        "one"
      ],
      [
        "ra",
        "ge"
      ],
      [
        "ma",
        "li"
      ],
      [
        "ma",
        "kes"
      ],
      [
        "wor",
        "k"
      ],
      [
        "wor",
        "th"
      ],
      [
        "than",
        "k"
      ],
      [
        "ple",
        "ase"
      ],
      [
        "sen",
        "ate"
      ],
      [
        "fi",
        "re"
      ],
      [
        "fi",
        "ght"
      ],
      [
        "see",
        "m"
      ],
      [
        "love",
        "d"
      ],
      [
        "che",
        "s"
      ],
      [
        "ac",
        "tion"
      ],
      [
        "ever",
        "y"
      ],
      [
        "bra",
        "ken"
      ],
      [
        "offi",
        "c"
      ],
      [
        "fal",
        "se"
      ],
      [
        "braken",
        "bury"
      ],
      [
        "!",
        "'"
      ],
      [
        "c",
        "ertain"
      ],
      [
        "e",
        "v"
      ],
      [
        "e",
        "ach"
      ],
      [
        "h",
        "ence"
      ],
      [
        "th",
        "r"
      ],
      [
        "re",
        "as"
      ],
      [
        "re",
        "turn"
      ],
      [
        "you",
        "n"
      ],
      [
        "ll",
        "y"
      ],
      [
        "ce",
        "ed"
      ],
      [
        "as",
        "ure"
      ],
      [
        "ch",
        "o"
      ],
      [
        "for",
        "m"
      ],
      [
        "with",
        "in"
      ],
      [
        "ow",
        "s"
      ],
      [
        "ri",
        "ci"
      ],
      [
        "mar",
        "k"
      ],
      [
        "su",
        "ff"
      ],
      [
        "la",
        "st"
      ],
      [
        "ser",
        "ve"
      ],
      [
        "br",
        "ing"
      ],
      [
        "ca",
        "pi"
      ],
      [
        "know",
        "n"
      ],
      [
        "love",
        "s"
      ],
      [
        "thing",
        "s"
      ],
      [
        "heart",
        "s"
      ],
      [
        "senator",
        "s"
      ],
      [
        "bre",
        "ak"
      ],
      [
        "pat",
        "rici"
      ],
      [
        "fort",
        "un"
      ],
      [
        "reven",
        "ge"
      ],
      [
        "capi",
        "tol"
      ],
      [
        "a",
        "ed"
      ],
      [
        "b",
        "er"
      ],
      [
        "d",
        "ra"
      ],
      [
        "g",
        "n"
      ],
      [
        "g",
        "es"
      ],
      [
        "h",
        "un"
      ],
      [
        "h",
        "ang"
      ],
      [
        "m",
        "s"
      ],
      [
        "n",
        "ed"
      ],
      [
        "n",
        "one"
      ],
      [
        "o",
        "be"
      ],
      [
        "s",
        "orrow"
      ],
      [
        "t",
        "alk"
      ],
      [
        "u",
        "de"
      ],
      [
        "v",
        "y"
      ],
      [
        "w",
        "he"
      ],
      [
        "th",
        "ree"
      ],
      [
        "re",
        "ma"
      ],
      [
        "re",
        "quest"
      ],
      [
        "at",
        "s"
      ],
      [
        "us",
        "h"
      ],
      [
        "to",
        "ld"
      ],
      [
        "he",
        "ld"
      ],
      [
        "no",
        "b"
      ],
      [
        "le",
        "ad"
      ],
      [
        "ce",
        "d"
      ],
      [
        "with",
        "out"
      ],
      [
        "pe",
        "t"
      ],
      [
        "con",
        "s"
      ],
      [
        "si",
        "on"
      ],
      [
        "wor",
        "n"
      ],
      [
        "fa",
        "ul"
      ],
      [
        "te",
        "ars"
      ],
      [
        "sa",
        "w"
      ],
      [
        "serv",
        "ice"
      ],
      [
        "pro",
        "ve"
      ],
      [
        "gra",
        "ve"
      ],
      [
        "ap",
        "pe"
      ],
      [
        "voi",
        "ce"
      ],
      [
        "hand",
        "s"
      ],
      [
        "sto",
        "od"
      ],
      [
        "child",
        "ren"
      ],
      [
        "cont",
        "ent"
      ],
      [
        "desi",
        "re"
      ],
      [
        "pard",
        "on"
      ],
      [
        "suff",
        "er"
      ],
      [
        "a",
        "ir"
      ],
      [
        "b",
        "ri"
      ],
      [
        "d",
        "or"
      ],
      [
        "d",
        "ro"
      ],
      [
        "g",
        "row"
      ],
      [
        "h",
        "our"
      ],
      [
        "i",
        "th"
      ],
      [
        "i",
        "ous"
      ],
      [
        "j",
        "est"
      ],
      [
        "k",
        "ed"
      ],
      [
        "l",
        "ing"
      ],
      [
        "l",
        "ate"
      ],
      [
        "p",
        "h"
      ],
      [
        "s",
        "ur"
      ],
      [
        "y",
        "i"
      ],
      [
        "re",
        "cei"
      ],
      [
        "er",
        "y"
      ],
      [
        "on",
        "d"
      ],
      [
        "ar",
        "y"
      ],
      [
        "me",
        "d"
      ],
      [
        "me",
        "an"
      ],
      [
        "se",
        "s"
      ],
      [
        "de",
        "st"
      ],
      [
        "de",
        "ep"
      ],
      [
        "go",
        "t"
      ],
      [
        "ad",
        "v"
      ],
      [
        "con",
        "f"
      ],
      [
        "su",
        "re"
      ],
      [
        "gi",
        "ven"
      ],
      [
        "sen",
        "d"
      ],
      [
        "ct",
        "s"
      ],
      [
        "sa",
        "me"
      ],
      [
        "sa",
        "fe"
      ],
      [
        "mi",
        "es"
      ],
      [
        "pla",
        "in"
      ],
      [
        "honour",
        "s"
      ],
      [
        "comm",
        "and"
      ],
      [
        "deed",
        "s"
      ],
      [
        "char",
        "ge"
      ],
      [
        "lie",
        "ve"
      ],
      [
        "ig",
        "n"
      ],
      [
        "shi",
        "p"
      ],
      [
        "dev",
        "il"
      ],
      [
        "deli",
        "ver"
      ],
      [
        "tra",
        "itor"
      ],
      [
        "lad",
        "ies"
      ],
      [
        "pers",
        "on"
      ],
      [
        "offic",
        "er"
      ],
      [
        "youn",
        "g"
      ],
      [
        "dor",
        "set"
      ],
      [
        "b",
        "it"
      ],
      [
        "c",
        "u"
      ],
      [
        "c",
        "en"
      ],
      [
        "g",
        "s"
      ],
      [
        "i",
        "v"
      ],
      [
        "o",
        "m"
      ],
      [
        "o",
        "ver"
      ],
      [
        "p",
        "ity"
      ],
      [
        "r",
        "ant"
      ],
      [
        "s",
        "un"
      ],
      [
        "s",
        "corn"
      ],
      [
        "t",
        "ch"
      ],
      [
        "w",
        "re"
      ],
      [
        "w",
        "it"
      ],
      [
        "w",
        "ant"
      ],
      [
        "x",
        "t"
      ],
      [
        "ou",
        "th"
      ],
      [
        "re",
        "ct"
      ],
      [
        "en",
        "ough"
      ],
      [
        "st",
        "ra"
      ],
      [
        "ha",
        "pp"
      ],
      [
        "be",
        "d"
      ],
      [
        "as",
        "k"
      ],
      [
        "hi",
        "gh"
      ],
      [
        "hi",
        "ther"
      ],
      [
        "your",
        "self"
      ],
      [
        "ke",
        "t"
      ],
      [
        "mo",
        "ck"
      ],
      [
        "do",
        "st"
      ],
      [
        "ne",
        "ed"
      ],
      [
        "ne",
        "ither"
      ],
      [
        "si",
        "de"
      ],
      [
        "sha",
        "lt"
      ],
      [
        "su",
        "b"
      ],
      [
        "com",
        "fort"
      ],
      [
        "ain",
        "t"
      ],
      [
        "po",
        "ison"
      ],
      [
        "sen",
        "ce"
      ],
      [
        "sa",
        "ke"
      ],
      [
        "coun",
        "ter"
      ],
      [
        "str",
        "uck"
      ],
      [
        "ye",
        "a"
      ],
      [
        "ene",
        "mies"
      ],
      [
        "mer",
        "cy"
      ],
      [
        "arm",
        "s"
      ],
      [
        "tru",
        "th"
      ],
      [
        "par",
        "ti"
      ],
      [
        "ear",
        "th"
      ],
      [
        "sle",
        "ep"
      ],
      [
        "tit",
        "us"
      ],
      [
        "roy",
        "al"
      ],
      [
        "hol",
        "y"
      ],
      [
        "reme",
        "mber"
      ],
      [
        "pati",
        "ence"
      ],
      [
        "bus",
        "iness"
      ],
      [
        "appe",
        "ar"
      ],
      [
        "a",
        "ke"
      ],
      [
        "a",
        "ge"
      ],
      [
        "b",
        "or"
      ],
      [
        "c",
        "ri"
      ],
      [
        "d",
        "ow"
      ],
      [
        "e",
        "ither"
      ],
      [
        "g",
        "th"
      ],
      [
        "l",
        "ow"
      ],
      [
        "m",
        "ut"
      ],
      [
        "m",
        "ind"
      ],
      [
        "n",
        "ing"
      ],
      [
        "p",
        "ra"
      ],
      [
        "p",
        "rom"
      ],
      [
        "s",
        "ing"
      ],
      [
        "s",
        "worn"
      ],
      [
        "t",
        "ouch"
      ],
      [
        "u",
        "es"
      ],
      [
        "an",
        "ta"
      ],
      [
        "re",
        "ign"
      ],
      [
        "at",
        "tend"
      ],
      [
        "to",
        "wn"
      ],
      [
        "he",
        "ll"
      ],
      [
        "be",
        "hold"
      ],
      [
        "be",
        "lly"
      ],
      [
        "ce",
        "ss"
      ],
      [
        "de",
        "sp"
      ],
      [
        "your",
        "selves"
      ],
      [
        "al",
        "most"
      ],
      [
        "ma",
        "jest"
      ],
      [
        "ent",
        "er"
      ],
      [
        "thy",
        "self"
      ],
      [
        "mar",
        "ry"
      ],
      [
        "mar",
        "ket"
      ],
      [
        "fo",
        "ot"
      ],
      [
        "them",
        "selves"
      ],
      [
        "war",
        "rant"
      ],
      [
        "fa",
        "ce"
      ],
      [
        "fa",
        "ith"
      ],
      [
        "br",
        "ought"
      ],
      [
        "il",
        "ity"
      ],
      [
        "ul",
        "ar"
      ],
      [
        "where",
        "in"
      ],
      [
        "wo",
        "man"
      ],
      [
        "blood",
        "y"
      ],
      [
        "str",
        "ong"
      ],
      [
        "bre",
        "ath"
      ],
      [
        "pri",
        "thee"
      ],
      [
        "vols",
        "ce"
      ],
      [
        "sc",
        "ar"
      ],
      [
        "fl",
        "atter"
      ],
      [
        "pl",
        "uck"
      ],
      [
        "den",
        "y"
      ],
      [
        "wr",
        "ong"
      ],
      [
        "ju",
        "d"
      ],
      [
        "ju",
        "st"
      ],
      [
        "pur",
        "pose"
      ],
      [
        "master",
        "s"
      ],
      [
        "danger",
        "ous"
      ],
      [
        "yi",
        "eld"
      ],
      [
        "majest",
        "y"
      ],
      [
        "b",
        "at"
      ],
      [
        "b",
        "ar"
      ],
      [
        "b",
        "urn"
      ],
      [
        "b",
        "ound"
      ],
      [
        "e",
        "ye"
      ],
      [
        "e",
        "cut"
      ],
      [
        "f",
        "ar"
      ],
      [
        "g",
        "ain"
      ],
      [
        "h",
        "en"
      ],
      [
        "h",
        "ur"
      ],
      [
        "h",
        "ard"
      ],
      [
        "h",
        "arm"
      ],
      [
        "i",
        "gh"
      ],
      [
        "i",
        "ly"
      ],
      [
        "n",
        "er"
      ],
      [
        "s",
        "m"
      ],
      [
        "s",
        "and"
      ],
      [
        "t",
        "ar"
      ],
      [
        "u",
        "b"
      ],
      [
        "u",
        "ous"
      ],
      [
        "an",
        "ti"
      ],
      [
        "re",
        "at"
      ],
      [
        "is",
        "ed"
      ],
      [
        "no",
        "ise"
      ],
      [
        "ha",
        "ving"
      ],
      [
        "it",
        "ude"
      ],
      [
        "le",
        "st"
      ],
      [
        "se",
        "d"
      ],
      [
        "be",
        "come"
      ],
      [
        "be",
        "lieve"
      ],
      [
        "of",
        "ten"
      ],
      [
        "we",
        "en"
      ],
      [
        "de",
        "f"
      ],
      [
        "de",
        "m"
      ],
      [
        "ch",
        "er"
      ],
      [
        "li",
        "ght"
      ],
      [
        "li",
        "ant"
      ],
      [
        "co",
        "ld"
      ],
      [
        "ur",
        "al"
      ],
      [
        "lo",
        "ss"
      ],
      [
        "con",
        "spir"
      ],
      [
        "thou",
        "sand"
      ],
      [
        "si",
        "l"
      ],
      [
        "la",
        "ment"
      ],
      [
        "po",
        "int"
      ],
      [
        "fa",
        "st"
      ],
      [
        "pr",
        "ison"
      ],
      [
        "who",
        "le"
      ],
      [
        "cond",
        "ition"
      ],
      [
        "fi",
        "eld"
      ],
      [
        "pre",
        "ss"
      ],
      [
        "noble",
        "s"
      ],
      [
        "pro",
        "ceed"
      ],
      [
        "mur",
        "der"
      ],
      [
        "gra",
        "cious"
      ],
      [
        "ex",
        "ecut"
      ],
      [
        "str",
        "u"
      ],
      [
        "vi",
        "ol"
      ],
      [
        "look",
        "s"
      ],
      [
        "pat",
        "ch"
      ],
      [
        "pri",
        "de"
      ],
      [
        "bet",
        "ween"
      ],
      [
        "bra",
        "ve"
      ],
      [
        "vols",
        "ci"
      ],
      [
        "roman",
        "s"
      ],
      [
        "curse",
        "s"
      ],
      [
        "deser",
        "ve"
      ],
      [
        "deser",
        "ved"
      ],
      [
        "va",
        "il"
      ],
      [
        "stri",
        "ke"
      ],
      [
        "spir",
        "it"
      ],
      [
        "har",
        "k"
      ],
      [
        "mali",
        "ce"
      ],
      [
        "reas",
        "on"
      ],
      [
        "patrici",
        "ans"
      ],
      [
        "fortun",
        "e"
      ],
      [
        "aed",
        "ile"
      ],
      [
        "whe",
        "ther"
      ],
      [
        "conspir",
        "ator"
      ],
      [
        "a",
        "men"
      ],
      [
        "b",
        "ad"
      ],
      [
        "c",
        "r"
      ],
      [
        "c",
        "at"
      ],
      [
        "c",
        "ro"
      ],
      [
        "d",
        "are"
      ],
      [
        "d",
        "uty"
      ],
      [
        "e",
        "mb"
      ],
      [
        "f",
        "ly"
      ],
      [
        "f",
        "oul"
      ],
      [
        "f",
        "ought"
      ],
      [
        "g",
        "ue"
      ],
      [
        "i",
        "an"
      ],
      [
        "l",
        "an"
      ],
      [
        "m",
        "it"
      ],
      [
        "m",
        "ity"
      ],
      [
        "t",
        "ing"
      ],
      [
        "t",
        "were"
      ],
      [
        "u",
        "ght"
      ],
      [
        "w",
        "at"
      ],
      [
        "w",
        "ine"
      ],
      [
        "z",
        "e"
      ],
      [
        "th",
        "ro"
      ],
      [
        "in",
        "ed"
      ],
      [
        "re",
        "l"
      ],
      [
        "or",
        "s"
      ],
      [
        "st",
        "ren"
      ],
      [
        "on",
        "es"
      ],
      [
        "is",
        "he"
      ],
      [
        "ar",
        "my"
      ],
      [
        "ve",
        "reign"
      ],
      [
        "se",
        "en"
      ],
      [
        "for",
        "ce"
      ],
      [
        "ut",
        "e"
      ],
      [
        "li",
        "p"
      ],
      [
        "so",
        "vereign"
      ],
      [
        "pe",
        "ct"
      ],
      [
        "al",
        "ong"
      ],
      [
        "al",
        "ready"
      ],
      [
        "un",
        "less"
      ],
      [
        "un",
        "cle"
      ],
      [
        "do",
        "ing"
      ],
      [
        "id",
        "er"
      ],
      [
        "si",
        "st"
      ],
      [
        "sha",
        "ke"
      ],
      [
        "su",
        "p"
      ],
      [
        "ck",
        "s"
      ],
      [
        "am",
        "p"
      ],
      [
        "tr",
        "ou"
      ],
      [
        "when",
        "ce"
      ],
      [
        "then",
        "ce"
      ],
      [
        "pre",
        "t"
      ],
      [
        "pre",
        "vail"
      ],
      [
        "il",
        "s"
      ],
      [
        "sa",
        "ve"
      ],
      [
        "di",
        "rect"
      ],
      [
        "row",
        "s"
      ],
      [
        "coun",
        "sel"
      ],
      [
        "gre",
        "y"
      ],
      [
        "dis",
        "patch"
      ],
      [
        "mi",
        "le"
      ],
      [
        "time",
        "s"
      ],
      [
        "str",
        "ange"
      ],
      [
        "bre",
        "ast"
      ],
      [
        "gr",
        "and"
      ],
      [
        "nat",
        "ural"
      ],
      [
        "swe",
        "ar"
      ],
      [
        "tong",
        "ues"
      ],
      [
        "sla",
        "ve"
      ],
      [
        "prince",
        "ly"
      ],
      [
        "spo",
        "ke"
      ],
      [
        "tem",
        "pt"
      ],
      [
        "dre",
        "am"
      ],
      [
        "spe",
        "ct"
      ],
      [
        "stre",
        "ss"
      ],
      [
        "comp",
        "any"
      ],
      [
        "dr",
        "um"
      ],
      [
        "virt",
        "uous"
      ],
      [
        "obe",
        "y"
      ],
      [
        "rema",
        "in"
      ],
      [
        "stra",
        "ight"
      ],
      [
        "happ",
        "y"
      ],
      [
        "scar",
        "ce"
      ],
      [
        "bat",
        "tle"
      ],
      [
        "stren",
        "gth"
      ],
      [
        "b",
        "our"
      ],
      [
        "c",
        "rown"
      ],
      [
        "d",
        "a"
      ],
      [
        "d",
        "aught"
      ],
      [
        "f",
        "our"
      ],
      [
        "f",
        "ra"
      ],
      [
        "g",
        "ave"
      ],
      [
        "h",
        "u"
      ],
      [
        "h",
        "ind"
      ],
      [
        "i",
        "ed"
      ],
      [
        "i",
        "ces"
      ],
      [
        "i",
        "ans"
      ],
      [
        "m",
        "or"
      ],
      [
        "m",
        "ble"
      ],
      [
        "m",
        "outh"
      ],
      [
        "o",
        "we"
      ],
      [
        "p",
        "it"
      ],
      [
        "p",
        "ain"
      ],
      [
        "t",
        "ro"
      ],
      [
        "t",
        "ull"
      ],
      [
        "u",
        "d"
      ],
      [
        "v",
        "is"
      ],
      [
        "v",
        "ill"
      ],
      [
        "w",
        "in"
      ],
      [
        "w",
        "all"
      ],
      [
        "w",
        "ind"
      ],
      [
        "w",
        "ise"
      ],
      [
        "th",
        "or"
      ],
      [
        "en",
        "ded"
      ],
      [
        "st",
        "in"
      ],
      [
        "ar",
        "n"
      ],
      [
        "ar",
        "ch"
      ],
      [
        "me",
        "t"
      ],
      [
        "me",
        "ans"
      ],
      [
        "me",
        "thought"
      ],
      [
        "le",
        "ft"
      ],
      [
        "se",
        "al"
      ],
      [
        "be",
        "cause"
      ],
      [
        "of",
        "t"
      ],
      [
        "wi",
        "xt"
      ],
      [
        "as",
        "h"
      ],
      [
        "ro",
        "ck"
      ],
      [
        "ch",
        "ange"
      ],
      [
        "co",
        "ward"
      ],
      [
        "ri",
        "ch"
      ],
      [
        "al",
        "s"
      ],
      [
        "al",
        "as"
      ],
      [
        "mo",
        "ve"
      ],
      [
        "all",
        "y"
      ],
      [
        "do",
        "m"
      ],
      [
        "si",
        "ght"
      ],
      [
        "ti",
        "de"
      ],
      [
        "fe",
        "el"
      ],
      [
        "wor",
        "se"
      ],
      [
        "ble",
        "ss"
      ],
      [
        "am",
        "ong"
      ],
      [
        "war",
        "ds"
      ],
      [
        "fi",
        "ll"
      ],
      [
        "pre",
        "sence"
      ],
      [
        "know",
        "s"
      ],
      [
        "say",
        "s"
      ],
      [
        "serv",
        "ant"
      ],
      [
        "pro",
        "vo"
      ],
      [
        "che",
        "d"
      ],
      [
        "che",
        "e"
      ],
      [
        "pray",
        "ers"
      ],
      [
        "der",
        "by"
      ],
      [
        "ye",
        "ars"
      ],
      [
        "great",
        "er"
      ],
      [
        "ation",
        "s"
      ],
      [
        "day",
        "s"
      ],
      [
        "sto",
        "m"
      ],
      [
        "char",
        "ity"
      ],
      [
        "fear",
        "ful"
      ],
      [
        "tre",
        "ad"
      ],
      [
        "gu",
        "ard"
      ],
      [
        "curse",
        "d"
      ],
      [
        "ig",
        "nor"
      ],
      [
        "tru",
        "st"
      ],
      [
        "full",
        "y"
      ],
      [
        "hor",
        "se"
      ],
      [
        "kne",
        "e"
      ],
      [
        "bla",
        "me"
      ],
      [
        "cour",
        "se"
      ],
      [
        "hat",
        "red"
      ],
      [
        "cha",
        "mber"
      ],
      [
        "thr",
        "ough"
      ],
      [
        "pet",
        "ition"
      ],
      [
        "faul",
        "t"
      ],
      [
        "mut",
        "in"
      ],
      [
        "anta",
        "ge"
      ],
      [
        "execut",
        "ion"
      ],
      [
        "grand",
        "am"
      ],
      [
        "tull",
        "us"
      ],
      [
        "a",
        "ct"
      ],
      [
        "a",
        "ves"
      ],
      [
        "a",
        "uty"
      ],
      [
        "b",
        "is"
      ],
      [
        "b",
        "ours"
      ],
      [
        "c",
        "us"
      ],
      [
        "c",
        "lo"
      ],
      [
        "c",
        "ent"
      ],
      [
        "c",
        "la"
      ],
      [
        "d",
        "ar"
      ],
      [
        "e",
        "at"
      ],
      [
        "e",
        "le"
      ],
      [
        "f",
        "ound"
      ],
      [
        "f",
        "ree"
      ],
      [
        "i",
        "ma"
      ],
      [
        "k",
        "is"
      ],
      [
        "l",
        "st"
      ],
      [
        "m",
        "ort"
      ],
      [
        "n",
        "um"
      ],
      [
        "o",
        "b"
      ],
      [
        "o",
        "h"
      ],
      [
        "p",
        "ed"
      ],
      [
        "p",
        "es"
      ],
      [
        "p",
        "lo"
      ],
      [
        "s",
        "it"
      ],
      [
        "s",
        "ound"
      ],
      [
        "s",
        "words"
      ],
      [
        "v",
        "ate"
      ],
      [
        "v",
        "ouch"
      ],
      [
        "w",
        "ra"
      ],
      [
        "y",
        "ond"
      ],
      [
        "th",
        "ither"
      ],
      [
        "in",
        "form"
      ],
      [
        "re",
        "f"
      ],
      [
        "re",
        "ad"
      ],
      [
        "re",
        "sol"
      ],
      [
        "re",
        "spect"
      ],
      [
        "en",
        "vy"
      ],
      [
        "st",
        "ab"
      ],
      [
        "is",
        "su"
      ],
      [
        "to",
        "wer"
      ],
      [
        "ha",
        "il"
      ],
      [
        "ve",
        "st"
      ],
      [
        "it",
        "self"
      ],
      [
        "le",
        "arn"
      ],
      [
        "be",
        "ast"
      ],
      [
        "be",
        "auty"
      ],
      [
        "wi",
        "lt"
      ],
      [
        "wi",
        "dow"
      ],
      [
        "we",
        "ar"
      ],
      [
        "we",
        "pt"
      ],
      [
        "de",
        "ter"
      ],
      [
        "ch",
        "ol"
      ],
      [
        "ch",
        "ance"
      ],
      [
        "li",
        "c"
      ],
      [
        "li",
        "ves"
      ],
      [
        "ri",
        "ed"
      ],
      [
        "men",
        "d"
      ],
      [
        "mo",
        "on"
      ],
      [
        "un",
        "natural"
      ],
      [
        "ne",
        "igh"
      ],
      [
        "si",
        "x"
      ],
      [
        "si",
        "ck"
      ],
      [
        "cor",
        "se"
      ],
      [
        "ent",
        "ertain"
      ],
      [
        "ent",
        "reat"
      ],
      [
        "fe",
        "ction"
      ],
      [
        "su",
        "red"
      ],
      [
        "la",
        "ck"
      ],
      [
        "ble",
        "d"
      ],
      [
        "whi",
        "lst"
      ],
      [
        "sh",
        "out"
      ],
      [
        "gl",
        "ad"
      ],
      [
        "fa",
        "v"
      ],
      [
        "fa",
        "me"
      ],
      [
        "te",
        "ar"
      ],
      [
        "let",
        "ter"
      ],
      [
        "fi",
        "e"
      ],
      [
        "hear",
        "ing"
      ],
      [
        "end",
        "ure"
      ],
      [
        "ci",
        "ence"
      ],
      [
        "pro",
        "p"
      ],
      [
        "coun",
        "t"
      ],
      [
        "speak",
        "s"
      ],
      [
        "dis",
        "pos"
      ],
      [
        "mi",
        "ld"
      ],
      [
        "fri",
        "ght"
      ],
      [
        "ex",
        "tre"
      ],
      [
        "other",
        "s"
      ],
      [
        "qu",
        "ar"
      ],
      [
        "bre",
        "a"
      ],
      [
        "ba",
        "se"
      ],
      [
        "vi",
        "ct"
      ],
      [
        "pri",
        "vate"
      ],
      [
        "part",
        "y"
      ],
      [
        "jo",
        "in"
      ],
      [
        "sto",
        "re"
      ],
      [
        "pa",
        "le"
      ],
      [
        "pa",
        "ir"
      ],
      [
        "pi",
        "e"
      ],
      [
        "bl",
        "ush"
      ],
      [
        "heaven",
        "s"
      ],
      [
        "ang",
        "ry"
      ],
      [
        "gentle",
        "man"
      ],
      [
        "wr",
        "it"
      ],
      [
        "wa",
        "il"
      ],
      [
        "mis",
        "s"
      ],
      [
        "va",
        "liant"
      ],
      [
        "law",
        "ful"
      ],
      [
        "car",
        "ry"
      ],
      [
        "je",
        "cts"
      ],
      [
        "nob",
        "ly"
      ],
      [
        "nob",
        "ility"
      ],
      [
        "cons",
        "ider"
      ],
      [
        "cons",
        "cience"
      ],
      [
        "bri",
        "ef"
      ],
      [
        "cu",
        "stom"
      ],
      [
        "parti",
        "c"
      ],
      [
        "prom",
        "ise"
      ],
      [
        "jud",
        "g"
      ],
      [
        "hen",
        "ry"
      ],
      [
        "sm",
        "all"
      ],
      [
        "viol",
        "ent"
      ],
      [
        "ishe",
        "d"
      ],
      [
        "pret",
        "ty"
      ],
      [
        "mort",
        "al"
      ],
      [
        "wra",
        "th"
      ],
      [
        ";",
        "'"
      ],
      [
        "a",
        "id"
      ],
      [
        "a",
        "ck"
      ],
      [
        "b",
        "s"
      ],
      [
        "b",
        "ow"
      ],
      [
        "b",
        "ly"
      ],
      [
        "b",
        "ert"
      ],
      [
        "c",
        "up"
      ],
      [
        "c",
        "ous"
      ],
      [
        "d",
        "le"
      ],
      [
        "d",
        "am"
      ],
      [
        "d",
        "ish"
      ],
      [
        "d",
        "den"
      ],
      [
        "e",
        "as"
      ],
      [
        "f",
        "in"
      ],
      [
        "f",
        "re"
      ],
      [
        "f",
        "ran"
      ],
      [
        "g",
        "a"
      ],
      [
        "g",
        "g"
      ],
      [
        "h",
        "one"
      ],
      [
        "i",
        "ster"
      ],
      [
        "j",
        "ury"
      ],
      [
        "l",
        "s"
      ],
      [
        "m",
        "orrow"
      ],
      [
        "n",
        "ur"
      ],
      [
        "o",
        "th"
      ],
      [
        "o",
        "ak"
      ],
      [
        "p",
        "are"
      ],
      [
        "p",
        "al"
      ],
      [
        "p",
        "un"
      ],
      [
        "r",
        "un"
      ],
      [
        "s",
        "in"
      ],
      [
        "s",
        "mo"
      ],
      [
        "s",
        "aint"
      ],
      [
        "s",
        "oft"
      ],
      [
        "t",
        "ent"
      ],
      [
        "w",
        "ak"
      ],
      [
        "th",
        "under"
      ],
      [
        "an",
        "ces"
      ],
      [
        "re",
        "ward"
      ],
      [
        "en",
        "ch"
      ],
      [
        "en",
        "counter"
      ],
      [
        "er",
        "ce"
      ],
      [
        "er",
        "ous"
      ],
      [
        "st",
        "ir"
      ],
      [
        "st",
        "ant"
      ],
      [
        "st",
        "amp"
      ],
      [
        "to",
        "ok"
      ],
      [
        "to",
        "wards"
      ],
      [
        "he",
        "al"
      ],
      [
        "me",
        "asure"
      ],
      [
        "ha",
        "p"
      ],
      [
        "it",
        "ed"
      ],
      [
        "se",
        "a"
      ],
      [
        "se",
        "ll"
      ],
      [
        "se",
        "mb"
      ],
      [
        "be",
        "ars"
      ],
      [
        "be",
        "hind"
      ],
      [
        "we",
        "st"
      ],
      [
        "we",
        "ed"
      ],
      [
        "we",
        "ak"
      ],
      [
        "for",
        "get"
      ],
      [
        "for",
        "got"
      ],
      [
        "not",
        "e"
      ],
      [
        "hi",
        "on"
      ],
      [
        "hi",
        "de"
      ],
      [
        "with",
        "al"
      ],
      [
        "so",
        "m"
      ],
      [
        "go",
        "ver"
      ],
      [
        "ri",
        "es"
      ],
      [
        "ur",
        "ge"
      ],
      [
        "un",
        "t"
      ],
      [
        "lo",
        "st"
      ],
      [
        "ra",
        "in"
      ],
      [
        "si",
        "gn"
      ],
      [
        "ti",
        "ve"
      ],
      [
        "fe",
        "e"
      ],
      [
        "su",
        "pp"
      ],
      [
        "com",
        "ing"
      ],
      [
        "com",
        "plain"
      ],
      [
        "ge",
        "st"
      ],
      [
        "sh",
        "o"
      ],
      [
        "than",
        "ks"
      ],
      [
        "te",
        "st"
      ],
      [
        "ho",
        "p"
      ],
      [
        "ho",
        "st"
      ],
      [
        "ho",
        "od"
      ],
      [
        "pr",
        "ate"
      ],
      [
        "et",
        "s"
      ],
      [
        "mu",
        "lt"
      ],
      [
        "ple",
        "be"
      ],
      [
        "ple",
        "asure"
      ],
      [
        "au",
        "thor"
      ],
      [
        "there",
        "in"
      ],
      [
        "ta",
        "ble"
      ],
      [
        "had",
        "st"
      ],
      [
        "pre",
        "pare"
      ],
      [
        "il",
        "t"
      ],
      [
        "bo",
        "ld"
      ],
      [
        "did",
        "st"
      ],
      [
        "di",
        "ence"
      ],
      [
        "way",
        "s"
      ],
      [
        "pro",
        "sp"
      ],
      [
        "gra",
        "in"
      ],
      [
        "ex",
        "c"
      ],
      [
        "wo",
        "re"
      ],
      [
        "wo",
        "men"
      ],
      [
        "think",
        "s"
      ],
      [
        "mb",
        "ers"
      ],
      [
        "ap",
        "pro"
      ],
      [
        "pla",
        "gue"
      ],
      [
        "son",
        "s"
      ],
      [
        "ren",
        "t"
      ],
      [
        "she",
        "d"
      ],
      [
        "gr",
        "ound"
      ],
      [
        "comm",
        "it"
      ],
      [
        "jo",
        "ve"
      ],
      [
        "pa",
        "st"
      ],
      [
        "est",
        "im"
      ],
      [
        "hea",
        "vy"
      ],
      [
        "bl",
        "ows"
      ],
      [
        "im",
        "prison"
      ],
      [
        "fl",
        "at"
      ],
      [
        "beg",
        "g"
      ],
      [
        "beg",
        "in"
      ],
      [
        "soul",
        "s"
      ],
      [
        "tru",
        "ly"
      ],
      [
        "kind",
        "red"
      ],
      [
        "dead",
        "ly"
      ],
      [
        "sla",
        "in"
      ],
      [
        "val",
        "our"
      ],
      [
        "woun",
        "ded"
      ],
      [
        "present",
        "ly"
      ],
      [
        "dre",
        "ad"
      ],
      [
        "banish",
        "ment"
      ],
      [
        "hum",
        "ble"
      ],
      [
        "kne",
        "es"
      ],
      [
        "fool",
        "s"
      ],
      [
        "qui",
        "ck"
      ],
      [
        "virt",
        "ue"
      ],
      [
        "cal",
        "m"
      ],
      [
        "dra",
        "w"
      ],
      [
        "lead",
        "s"
      ],
      [
        "faul",
        "ts"
      ],
      [
        "ph",
        "y"
      ],
      [
        "recei",
        "ve"
      ],
      [
        "recei",
        "ved"
      ],
      [
        "adv",
        "ance"
      ],
      [
        "bor",
        "ne"
      ],
      [
        "pra",
        "ise"
      ],
      [
        "gain",
        "st"
      ],
      [
        "def",
        "end"
      ],
      [
        "stru",
        "ction"
      ],
      [
        "ught",
        "er"
      ],
      [
        "thro",
        "at"
      ],
      [
        "trou",
        "ble"
      ],
      [
        "daught",
        "er"
      ],
      [
        "hu",
        "man"
      ],
      [
        "tro",
        "th"
      ],
      [
        "vill",
        "ain"
      ],
      [
        "wall",
        "s"
      ],
      [
        "provo",
        "ked"
      ],
      [
        "chee",
        "ks"
      ],
      [
        "fav",
        "our"
      ],
      [
        "prop",
        "he"
      ],
      [
        "dispos",
        "ition"
      ],
      [
        "partic",
        "ular"
      ],
      [
        "judg",
        "ment"
      ],
      [
        "dish",
        "onour"
      ],
      [
        "nur",
        "se"
      ],
      [
        "gover",
        "n"
      ],
      [
        "a",
        "bo"
      ],
      [
        "b",
        "ene"
      ],
      [
        "c",
        "ure"
      ],
      [
        "c",
        "lose"
      ],
      [
        "d",
        "y"
      ],
      [
        "d",
        "ur"
      ],
      [
        "d",
        "red"
      ],
      [
        "d",
        "rown"
      ],
      [
        "e",
        "w"
      ],
      [
        "e",
        "ase"
      ],
      [
        "f",
        "er"
      ],
      [
        "f",
        "am"
      ],
      [
        "f",
        "ine"
      ],
      [
        "f",
        "rown"
      ],
      [
        "g",
        "ro"
      ],
      [
        "g",
        "rown"
      ],
      [
        "h",
        "ours"
      ],
      [
        "i",
        "c"
      ],
      [
        "k",
        "na"
      ],
      [
        "k",
        "new"
      ],
      [
        "l",
        "en"
      ],
      [
        "o",
        "c"
      ],
      [
        "p",
        "or"
      ],
      [
        "p",
        "as"
      ],
      [
        "p",
        "au"
      ],
      [
        "p",
        "ub"
      ],
      [
        "r",
        "on"
      ],
      [
        "r",
        "ing"
      ],
      [
        "s",
        "al"
      ],
      [
        "s",
        "ad"
      ],
      [
        "s",
        "pr"
      ],
      [
        "s",
        "ort"
      ],
      [
        "s",
        "land"
      ],
      [
        "t",
        "w"
      ],
      [
        "t",
        "ten"
      ],
      [
        "t",
        "ched"
      ],
      [
        "u",
        "ed"
      ],
      [
        "v",
        "antage"
      ],
      [
        "w",
        "s"
      ],
      [
        "w",
        "is"
      ],
      [
        "th",
        "re"
      ],
      [
        "th",
        "ri"
      ],
      [
        "ou",
        "ds"
      ],
      [
        "an",
        "ci"
      ],
      [
        "in",
        "no"
      ],
      [
        "in",
        "cl"
      ],
      [
        "in",
        "sol"
      ],
      [
        "in",
        "fect"
      ],
      [
        "in",
        "cen"
      ],
      [
        "in",
        "jury"
      ],
      [
        "re",
        "be"
      ],
      [
        "re",
        "now"
      ],
      [
        "re",
        "ti"
      ],
      [
        "re",
        "qui"
      ],
      [
        "re",
        "pair"
      ],
      [
        "en",
        "joy"
      ],
      [
        "at",
        "ed"
      ],
      [
        "st",
        "s"
      ],
      [
        "st",
        "ar"
      ],
      [
        "st",
        "ro"
      ],
      [
        "st",
        "ake"
      ],
      [
        "st",
        "ones"
      ],
      [
        "is",
        "ing"
      ],
      [
        "he",
        "ir"
      ],
      [
        "me",
        "mbers"
      ],
      [
        "no",
        "on"
      ],
      [
        "no",
        "bl"
      ],
      [
        "it",
        "ies"
      ],
      [
        "le",
        "aves"
      ],
      [
        "se",
        "y"
      ],
      [
        "se",
        "ver"
      ],
      [
        "se",
        "ven"
      ],
      [
        "se",
        "mble"
      ],
      [
        "be",
        "held"
      ],
      [
        "be",
        "low"
      ],
      [
        "ce",
        "pt"
      ],
      [
        "ing",
        "r"
      ],
      [
        "wi",
        "ck"
      ],
      [
        "we",
        "al"
      ],
      [
        "as",
        "ing"
      ],
      [
        "as",
        "sured"
      ],
      [
        "ro",
        "ad"
      ],
      [
        "ro",
        "tten"
      ],
      [
        "for",
        "d"
      ],
      [
        "for",
        "mer"
      ],
      [
        "li",
        "ps"
      ],
      [
        "li",
        "bert"
      ],
      [
        "so",
        "on"
      ],
      [
        "our",
        "selves"
      ],
      [
        "ke",
        "pt"
      ],
      [
        "go",
        "ing"
      ],
      [
        "go",
        "ld"
      ],
      [
        "go",
        "es"
      ],
      [
        "pe",
        "ian"
      ],
      [
        "mo",
        "tion"
      ],
      [
        "mo",
        "ved"
      ],
      [
        "lo",
        "ad"
      ],
      [
        "con",
        "cl"
      ],
      [
        "con",
        "sent"
      ],
      [
        "con",
        "dem"
      ],
      [
        "con",
        "tempt"
      ],
      [
        "do",
        "g"
      ],
      [
        "ma",
        "king"
      ],
      [
        "ne",
        "st"
      ],
      [
        "ne",
        "ck"
      ],
      [
        "si",
        "gh"
      ],
      [
        "si",
        "ble"
      ],
      [
        "ent",
        "y"
      ],
      [
        "fe",
        "it"
      ],
      [
        "su",
        "c"
      ],
      [
        "su",
        "m"
      ],
      [
        "su",
        "it"
      ],
      [
        "su",
        "dden"
      ],
      [
        "com",
        "mend"
      ],
      [
        "la",
        "id"
      ],
      [
        "la",
        "bour"
      ],
      [
        "here",
        "after"
      ],
      [
        "ge",
        "ance"
      ],
      [
        "ter",
        "r"
      ],
      [
        "whi",
        "ther"
      ],
      [
        "sh",
        "ort"
      ],
      [
        "oun",
        "ds"
      ],
      [
        "po",
        "p"
      ],
      [
        "po",
        "st"
      ],
      [
        "was",
        "h"
      ],
      [
        "their",
        "s"
      ],
      [
        "fa",
        "ces"
      ],
      [
        "te",
        "ach"
      ],
      [
        "pr",
        "on"
      ],
      [
        "tr",
        "um"
      ],
      [
        "ate",
        "ful"
      ],
      [
        "mu",
        "l"
      ],
      [
        "ple",
        "ad"
      ],
      [
        "ca",
        "st"
      ],
      [
        "ca",
        "ster"
      ],
      [
        "ca",
        "ps"
      ],
      [
        "out",
        "ward"
      ],
      [
        "good",
        "ly"
      ],
      [
        "cond",
        "u"
      ],
      [
        "ven",
        "geance"
      ],
      [
        "fi",
        "ve"
      ],
      [
        "see",
        "k"
      ],
      [
        "king",
        "dom"
      ],
      [
        "bo",
        "som"
      ],
      [
        "sir",
        "s"
      ],
      [
        "cl",
        "ouds"
      ],
      [
        "serv",
        "ices"
      ],
      [
        "di",
        "v"
      ],
      [
        "pro",
        "per"
      ],
      [
        "gre",
        "e"
      ],
      [
        "dis",
        "miss"
      ],
      [
        "mi",
        "stress"
      ],
      [
        "na",
        "ked"
      ],
      [
        "some",
        "thing"
      ],
      [
        "ex",
        "ile"
      ],
      [
        "ex",
        "ceed"
      ],
      [
        "ex",
        "pect"
      ],
      [
        "ac",
        "count"
      ],
      [
        "ap",
        "p"
      ],
      [
        "hast",
        "e"
      ],
      [
        "ren",
        "d"
      ],
      [
        "gr",
        "at"
      ],
      [
        "vi",
        "le"
      ],
      [
        "vi",
        "ew"
      ],
      [
        "stand",
        "s"
      ],
      [
        "chi",
        "e"
      ],
      [
        "char",
        "ged"
      ],
      [
        "tribun",
        "e"
      ],
      [
        "turn",
        "s"
      ],
      [
        "mer",
        "it"
      ],
      [
        "thought",
        "s"
      ],
      [
        "ban",
        "ished"
      ],
      [
        "rep",
        "ent"
      ],
      [
        "kind",
        "ly"
      ],
      [
        "ru",
        "in"
      ],
      [
        "fellow",
        "s"
      ],
      [
        "sla",
        "ves"
      ],
      [
        "sla",
        "ughter"
      ],
      [
        "int",
        "ent"
      ],
      [
        "soldi",
        "ers"
      ],
      [
        "op",
        "en"
      ],
      [
        "reven",
        "ged"
      ],
      [
        "won",
        "t"
      ],
      [
        "won",
        "der"
      ],
      [
        "cei",
        "ve"
      ],
      [
        "bu",
        "y"
      ],
      [
        "bla",
        "ck"
      ],
      [
        "cour",
        "t"
      ],
      [
        "cra",
        "ck"
      ],
      [
        "sle",
        "w"
      ],
      [
        "tend",
        "er"
      ],
      [
        "acc",
        "us"
      ],
      [
        "acc",
        "use"
      ],
      [
        "hol",
        "p"
      ],
      [
        "min",
        "ister"
      ],
      [
        "head",
        "s"
      ],
      [
        "pati",
        "ent"
      ],
      [
        "care",
        "s"
      ],
      [
        "gri",
        "ev"
      ],
      [
        "ste",
        "ed"
      ],
      [
        "reas",
        "ons"
      ],
      [
        "cho",
        "ice"
      ],
      [
        "patrici",
        "an"
      ],
      [
        "hun",
        "g"
      ],
      [
        "hun",
        "dred"
      ],
      [
        "rema",
        "ins"
      ],
      [
        "dro",
        "p"
      ],
      [
        "dro",
        "ps"
      ],
      [
        "dest",
        "roy"
      ],
      [
        "wit",
        "ness"
      ],
      [
        "sub",
        "jects"
      ],
      [
        "bor",
        "n"
      ],
      [
        "cri",
        "es"
      ],
      [
        "just",
        "ice"
      ],
      [
        "tar",
        "peian"
      ],
      [
        "anti",
        "um"
      ],
      [
        "whole",
        "some"
      ],
      [
        "volsci",
        "an"
      ],
      [
        "volsci",
        "ans"
      ],
      [
        "cr",
        "ue"
      ],
      [
        "emb",
        "ra"
      ],
      [
        "lan",
        "caster"
      ],
      [
        "da",
        "ily"
      ],
      [
        "mouth",
        "s"
      ],
      [
        "vis",
        "it"
      ],
      [
        "arch",
        "bis"
      ],
      [
        "coward",
        "ly"
      ],
      [
        "ignor",
        "ance"
      ],
      [
        "dar",
        "k"
      ],
      [
        "kis",
        "s"
      ],
      [
        "resol",
        "ved"
      ],
      [
        "stab",
        "b"
      ],
      [
        "issu",
        "e"
      ],
      [
        "neigh",
        "bours"
      ],
      [
        "mild",
        "ly"
      ],
      [
        "quar",
        "rel"
      ],
      [
        "brea",
        "the"
      ],
      [
        "cous",
        "in"
      ],
      [
        "eas",
        "y"
      ],
      [
        "hone",
        "st"
      ],
      [
        "pun",
        "ish"
      ],
      [
        "mult",
        "itude"
      ],
      [
        "plebe",
        "ians"
      ],
      [
        "exc",
        "use"
      ],
      [
        "estim",
        "ation"
      ],
      [
        "phy",
        "sic"
      ],
      [
        "pau",
        "l"
      ],
      [
        "tw",
        "enty"
      ],
      [
        "anci",
        "ent"
      ],
      [
        "libert",
        "y"
      ],
      [
        "griev",
        "ous"
      ],
      [
        "archbis",
        "hop"
      ],
      [
        "a",
        "ld"
      ],
      [
        "a",
        "like"
      ],
      [
        "a",
        "ded"
      ],
      [
        "a",
        "while"
      ],
      [
        "a",
        "ches"
      ],
      [
        "b",
        "on"
      ],
      [
        "b",
        "ur"
      ],
      [
        "b",
        "ble"
      ],
      [
        "b",
        "row"
      ],
      [
        "b",
        "rows"
      ],
      [
        "c",
        "as"
      ],
      [
        "d",
        "in"
      ],
      [
        "d",
        "ge"
      ],
      [
        "d",
        "ain"
      ],
      [
        "d",
        "ance"
      ],
      [
        "e",
        "ch"
      ],
      [
        "e",
        "ag"
      ],
      [
        "f",
        "ing"
      ],
      [
        "f",
        "as"
      ],
      [
        "f",
        "li"
      ],
      [
        "f",
        "la"
      ],
      [
        "g",
        "in"
      ],
      [
        "g",
        "ir"
      ],
      [
        "g",
        "ly"
      ],
      [
        "g",
        "ine"
      ],
      [
        "i",
        "de"
      ],
      [
        "i",
        "les"
      ],
      [
        "j",
        "our"
      ],
      [
        "j",
        "up"
      ],
      [
        "j",
        "ure"
      ],
      [
        "k",
        "it"
      ],
      [
        "l",
        "ar"
      ],
      [
        "m",
        "at"
      ],
      [
        "m",
        "our"
      ],
      [
        "m",
        "al"
      ],
      [
        "m",
        "id"
      ],
      [
        "m",
        "ory"
      ],
      [
        "n",
        "y"
      ],
      [
        "o",
        "st"
      ],
      [
        "o",
        "king"
      ],
      [
        "p",
        "ort"
      ],
      [
        "r",
        "up"
      ],
      [
        "r",
        "um"
      ],
      [
        "r",
        "ough"
      ],
      [
        "s",
        "y"
      ],
      [
        "s",
        "an"
      ],
      [
        "s",
        "wi"
      ],
      [
        "s",
        "lay"
      ],
      [
        "s",
        "its"
      ],
      [
        "s",
        "outh"
      ],
      [
        "s",
        "mile"
      ],
      [
        "t",
        "or"
      ],
      [
        "t",
        "ren"
      ],
      [
        "t",
        "ush"
      ],
      [
        "t",
        "wixt"
      ],
      [
        "u",
        "al"
      ],
      [
        "u",
        "gh"
      ],
      [
        "u",
        "ff"
      ],
      [
        "u",
        "gly"
      ],
      [
        "v",
        "ul"
      ],
      [
        "v",
        "ish"
      ],
      [
        "w",
        "ert"
      ],
      [
        "w",
        "ast"
      ],
      [
        "w",
        "ks"
      ],
      [
        "w",
        "its"
      ],
      [
        "y",
        "on"
      ],
      [
        "z",
        "ard"
      ],
      [
        "th",
        "in"
      ],
      [
        "th",
        "row"
      ],
      [
        "an",
        "on"
      ],
      [
        "in",
        "ion"
      ],
      [
        "in",
        "cre"
      ],
      [
        "re",
        "s"
      ],
      [
        "re",
        "pe"
      ],
      [
        "re",
        "qu"
      ],
      [
        "en",
        "gl"
      ],
      [
        "en",
        "ant"
      ],
      [
        "en",
        "vi"
      ],
      [
        "en",
        "mity"
      ],
      [
        "er",
        "c"
      ],
      [
        "or",
        "ious"
      ],
      [
        "at",
        "ing"
      ],
      [
        "st",
        "out"
      ],
      [
        "is",
        "es"
      ],
      [
        "is",
        "sion"
      ],
      [
        "us",
        "ion"
      ],
      [
        "ll",
        "ion"
      ],
      [
        "to",
        "m"
      ],
      [
        "he",
        "s"
      ],
      [
        "he",
        "ed"
      ],
      [
        "he",
        "ap"
      ],
      [
        "me",
        "ed"
      ],
      [
        "me",
        "lt"
      ],
      [
        "me",
        "thinks"
      ],
      [
        "me",
        "mory"
      ],
      [
        "no",
        "d"
      ],
      [
        "ha",
        "ir"
      ],
      [
        "ve",
        "l"
      ],
      [
        "ve",
        "y"
      ],
      [
        "it",
        "er"
      ],
      [
        "it",
        "able"
      ],
      [
        "se",
        "iz"
      ],
      [
        "se",
        "cre"
      ],
      [
        "be",
        "tide"
      ],
      [
        "ce",
        "ll"
      ],
      [
        "ce",
        "ase"
      ],
      [
        "ing",
        "ly"
      ],
      [
        "wi",
        "ves"
      ],
      [
        "we",
        "d"
      ],
      [
        "we",
        "ap"
      ],
      [
        "we",
        "ary"
      ],
      [
        "de",
        "s"
      ],
      [
        "de",
        "are"
      ],
      [
        "as",
        "on"
      ],
      [
        "ro",
        "ar"
      ],
      [
        "ro",
        "ot"
      ],
      [
        "ch",
        "ri"
      ],
      [
        "for",
        "so"
      ],
      [
        "for",
        "give"
      ],
      [
        "ut",
        "ter"
      ],
      [
        "ut",
        "enant"
      ],
      [
        "ed",
        "ing"
      ],
      [
        "li",
        "ed"
      ],
      [
        "li",
        "ving"
      ],
      [
        "co",
        "ver"
      ],
      [
        "so",
        "o"
      ],
      [
        "so",
        "le"
      ],
      [
        "so",
        "ever"
      ],
      [
        "ri",
        "p"
      ],
      [
        "ri",
        "pe"
      ],
      [
        "pe",
        "ers"
      ],
      [
        "al",
        "ms"
      ],
      [
        "al",
        "ways"
      ],
      [
        "mo",
        "dest"
      ],
      [
        "un",
        "time"
      ],
      [
        "un",
        "done"
      ],
      [
        "un",
        "known"
      ],
      [
        "but",
        "ter"
      ],
      [
        "but",
        "cher"
      ],
      [
        "ad",
        "mit"
      ],
      [
        "lo",
        "oking"
      ],
      [
        "con",
        "fir"
      ],
      [
        "do",
        "gs"
      ],
      [
        "id",
        "ent"
      ],
      [
        "ma",
        "gi"
      ],
      [
        "ne",
        "ar"
      ],
      [
        "si",
        "m"
      ],
      [
        "ti",
        "c"
      ],
      [
        "ti",
        "es"
      ],
      [
        "ti",
        "ly"
      ],
      [
        "fe",
        "st"
      ],
      [
        "fe",
        "ren"
      ],
      [
        "fe",
        "ast"
      ],
      [
        "mar",
        "s"
      ],
      [
        "mar",
        "ch"
      ],
      [
        "mar",
        "ks"
      ],
      [
        "sha",
        "dow"
      ],
      [
        "wor",
        "st"
      ],
      [
        "wor",
        "ship"
      ],
      [
        "la",
        "ugh"
      ],
      [
        "fo",
        "e"
      ],
      [
        "fo",
        "ld"
      ],
      [
        "fo",
        "lly"
      ],
      [
        "whi",
        "p"
      ],
      [
        "war",
        "like"
      ],
      [
        "war",
        "wick"
      ],
      [
        "gl",
        "ass"
      ],
      [
        "can",
        "st"
      ],
      [
        "ser",
        "ved"
      ],
      [
        "te",
        "wks"
      ],
      [
        "ple",
        "asing"
      ],
      [
        "would",
        "st"
      ],
      [
        "let",
        "s"
      ],
      [
        "ta",
        "un"
      ],
      [
        "ct",
        "or"
      ],
      [
        "ct",
        "ed"
      ],
      [
        "ag",
        "ed"
      ],
      [
        "ag",
        "es"
      ],
      [
        "see",
        "ing"
      ],
      [
        "know",
        "led"
      ],
      [
        "bo",
        "t"
      ],
      [
        "where",
        "fore"
      ],
      [
        "di",
        "stress"
      ],
      [
        "her",
        "d"
      ],
      [
        "her",
        "ald"
      ],
      [
        "sp",
        "are"
      ],
      [
        "sp",
        "end"
      ],
      [
        "dis",
        "grace"
      ],
      [
        "dis",
        "ease"
      ],
      [
        "dis",
        "dain"
      ],
      [
        "mi",
        "stake"
      ],
      [
        "na",
        "w"
      ],
      [
        "some",
        "time"
      ],
      [
        "aren",
        "t"
      ],
      [
        "may",
        "st"
      ],
      [
        "che",
        "ap"
      ],
      [
        "ence",
        "d"
      ],
      [
        "ex",
        "press"
      ],
      [
        "per",
        "form"
      ],
      [
        "per",
        "ceive"
      ],
      [
        "wo",
        "o"
      ],
      [
        "wo",
        "mb"
      ],
      [
        "ab",
        "hor"
      ],
      [
        "ab",
        "sol"
      ],
      [
        "ab",
        "sence"
      ],
      [
        "tri",
        "be"
      ],
      [
        "du",
        "ll"
      ],
      [
        "bre",
        "d"
      ],
      [
        "honour",
        "able"
      ],
      [
        "bro",
        "ke"
      ],
      [
        "cur",
        "rent"
      ],
      [
        "comm",
        "ission"
      ],
      [
        "af",
        "fect"
      ],
      [
        "af",
        "fection"
      ],
      [
        "pow",
        "ers"
      ],
      [
        "el",
        "s"
      ],
      [
        "stand",
        "ing"
      ],
      [
        "chi",
        "ef"
      ],
      [
        "pri",
        "ce"
      ],
      [
        "part",
        "s"
      ],
      [
        "sto",
        "p"
      ],
      [
        "bet",
        "wixt"
      ],
      [
        "pa",
        "ck"
      ],
      [
        "char",
        "ges"
      ],
      [
        "bl",
        "ind"
      ],
      [
        "show",
        "s"
      ],
      [
        "brother",
        "s"
      ],
      [
        "lie",
        "utenant"
      ],
      [
        "im",
        "s"
      ],
      [
        "off",
        "ence"
      ],
      [
        "wel",
        "s"
      ],
      [
        "child",
[...]
